{
  "version": "1.0",
  "truncation": null,
  "padding": null,
  "added_tokens": [
    {
      "id": 0,
      "content": "<|endoftext|>",
      "single_word": false,
      "lstrip": false,
      "rstrip": false,
      "normalized": false,
      "special": true
    },
    {
      "id": 1,
      "content": "<|padding|>",
      "single_word": false,
      "lstrip": false,
      "rstrip": false,
      "normalized": false,
      "special": true
    },
    {
      "id": 2,
      "content": "<fim_prefix>",
      "single_word": false,
      "lstrip": false,
      "rstrip": false,
      "normalized": false,
      "special": true
    },
    {
      "id": 3,
      "content": "<fim_middle>",
      "single_word": false,
      "lstrip": false,
      "rstrip": false,
      "normalized": false,
      "special": true
    },
    {
      "id": 4,
      "content": "<fim_suffix>",
      "single_word": false,
      "lstrip": false,
      "rstrip": false,
      "normalized": false,
      "special": true
    },
    {
      "id": 5,
      "content": "<fim_eot>",
      "single_word": false,
      "lstrip": false,
      "rstrip": false,
      "normalized": false,
      "special": true
    },
    {
      "id": 6,
      "content": "<fim_pad>",
      "single_word": false,
      "lstrip": false,
      "rstrip": false,
      "normalized": false,
      "special": true
    },
    {
      "id": 7,
      "content": "[INST]",
      "single_word": false,
      "lstrip": false,
      "rstrip": false,
      "normalized": false,
      "special": true
    },
    {
      "id": 8,
      "content": "[/INST]",
      "single_word": false,
      "lstrip": false,
      "rstrip": false,
      "normalized": false,
      "special": true
    },
    {
      "id": 9,
      "content": "<extra_id_2>",
      "single_word": false,
      "lstrip": false,
      "rstrip": false,
      "normalized": false,
      "special": true
    },
    {
      "id": 10,
      "content": "<extra_id_3>",
      "single_word": false,
      "lstrip": false,
      "rstrip": false,
      "normalized": false,
      "special": true
    },
    {
      "id": 11,
      "content": "<extra_id_4>",
      "single_word": false,
      "lstrip": false,
      "rstrip": false,
      "normalized": false,
      "special": true
    },
    {
      "id": 12,
      "content": "<extra_id_5>",
      "single_word": false,
      "lstrip": false,
      "rstrip": false,
      "normalized": false,
      "special": true
    },
    {
      "id": 13,
      "content": "<extra_id_6>",
      "single_word": false,
      "lstrip": false,
      "rstrip": false,
      "normalized": false,
      "special": true
    },
    {
      "id": 14,
      "content": "<extra_id_7>",
      "single_word": false,
      "lstrip": false,
      "rstrip": false,
      "normalized": false,
      "special": true
    },
    {
      "id": 15,
      "content": "<extra_id_8>",
      "single_word": false,
      "lstrip": false,
      "rstrip": false,
      "normalized": false,
      "special": true
    },
    {
      "id": 16,
      "content": "<extra_id_9>",
      "single_word": false,
      "lstrip": false,
      "rstrip": false,
      "normalized": false,
      "special": true
    },
    {
      "id": 17,
      "content": "<extra_id_10>",
      "single_word": false,
      "lstrip": false,
      "rstrip": false,
      "normalized": false,
      "special": true
    }
  ],
  "normalizer": {
    "type": "NFC"
  },
  "pre_tokenizer": {
    "type": "ByteLevel",
    "add_prefix_space": false,
    "trim_offsets": true,
    "use_regex": true
  },
  "post_processor": {
    "type": "ByteLevel",
    "add_prefix_space": false,
    "trim_offsets": true,
    "use_regex": true
  },
  "decoder": {
    "type": "ByteLevel",
    "add_prefix_space": false,
    "trim_offsets": true,
    "use_regex": true
  },
  "model": {
    "type": "BPE",
    "dropout": null,
    "unk_token": null,
    "continuing_subword_prefix": null,
    "end_of_word_suffix": null,
    "fuse_unk": false,
    "byte_fallback": false,
    "vocab": {
      "<|endoftext|>": 0,
      "<|padding|>": 1,
      "<fim_prefix>": 2,
      "<fim_middle>": 3,
      "<fim_suffix>": 4,
      "<fim_eot>": 5,
      "<fim_pad>": 6,
      "[INST]": 7,
      "[/INST]": 8,
      "<extra_id_2>": 9,
      "<extra_id_3>": 10,
      "<extra_id_4>": 11,
      "<extra_id_5>": 12,
      "<extra_id_6>": 13,
      "<extra_id_7>": 14,
      "<extra_id_8>": 15,
      "<extra_id_9>": 16,
      "<extra_id_10>": 17,
      "!": 18,
      "\"": 19,
      "#": 20,
      "$": 21,
      "%": 22,
      "&": 23,
      "'": 24,
      "(": 25,
      ")": 26,
      "*": 27,
      "+": 28,
      ",": 29,
      "-": 30,
      ".": 31,
      "/": 32,
      "0": 33,
      "1": 34,
      "2": 35,
      "3": 36,
      "4": 37,
      "5": 38,
      "6": 39,
      "7": 40,
      "8": 41,
      "9": 42,
      ":": 43,
      ";": 44,
      "<": 45,
      "=": 46,
      ">": 47,
      "?": 48,
      "@": 49,
      "A": 50,
      "B": 51,
      "C": 52,
      "D": 53,
      "E": 54,
      "F": 55,
      "G": 56,
      "H": 57,
      "I": 58,
      "J": 59,
      "K": 60,
      "L": 61,
      "M": 62,
      "N": 63,
      "O": 64,
      "P": 65,
      "Q": 66,
      "R": 67,
      "S": 68,
      "T": 69,
      "U": 70,
      "V": 71,
      "W": 72,
      "X": 73,
      "Y": 74,
      "Z": 75,
      "[": 76,
      "\\": 77,
      "]": 78,
      "^": 79,
      "_": 80,
      "`": 81,
      "a": 82,
      "b": 83,
      "c": 84,
      "d": 85,
      "e": 86,
      "f": 87,
      "g": 88,
      "h": 89,
      "i": 90,
      "j": 91,
      "k": 92,
      "l": 93,
      "m": 94,
      "n": 95,
      "o": 96,
      "p": 97,
      "q": 98,
      "r": 99,
      "s": 100,
      "t": 101,
      "u": 102,
      "v": 103,
      "w": 104,
      "x": 105,
      "y": 106,
      "z": 107,
      "{": 108,
      "|": 109,
      "}": 110,
      "~": 111,
      "¡": 112,
      "¢": 113,
      "£": 114,
      "¤": 115,
      "¥": 116,
      "¦": 117,
      "§": 118,
      "¨": 119,
      "©": 120,
      "ª": 121,
      "«": 122,
      "¬": 123,
      "®": 124,
      "¯": 125,
      "°": 126,
      "±": 127,
      "²": 128,
      "³": 129,
      "´": 130,
      "µ": 131,
      "¶": 132,
      "·": 133,
      "¸": 134,
      "¹": 135,
      "º": 136,
      "»": 137,
      "¼": 138,
      "½": 139,
      "¾": 140,
      "¿": 141,
      "À": 142,
      "Á": 143,
      "Â": 144,
      "Ã": 145,
      "Ä": 146,
      "Å": 147,
      "Æ": 148,
      "Ç": 149,
      "È": 150,
      "É": 151,
      "Ê": 152,
      "Ë": 153,
      "Ì": 154,
      "Í": 155,
      "Î": 156,
      "Ï": 157,
      "Ð": 158,
      "Ñ": 159,
      "Ò": 160,
      "Ó": 161,
      "Ô": 162,
      "Õ": 163,
      "Ö": 164,
      "×": 165,
      "Ø": 166,
      "Ù": 167,
      "Ú": 168,
      "Û": 169,
      "Ü": 170,
      "Ý": 171,
      "Þ": 172,
      "ß": 173,
      "à": 174,
      "á": 175,
      "â": 176,
      "ã": 177,
      "ä": 178,
      "å": 179,
      "æ": 180,
      "ç": 181,
      "è": 182,
      "é": 183,
      "ê": 184,
      "ë": 185,
      "ì": 186,
      "í": 187,
      "î": 188,
      "ï": 189,
      "ð": 190,
      "ñ": 191,
      "ò": 192,
      "ó": 193,
      "ô": 194,
      "õ": 195,
      "ö": 196,
      "÷": 197,
      "ø": 198,
      "ù": 199,
      "ú": 200,
      "û": 201,
      "ü": 202,
      "ý": 203,
      "þ": 204,
      "ÿ": 205,
      "Ā": 206,
      "ā": 207,
      "Ă": 208,
      "ă": 209,
      "Ą": 210,
      "ą": 211,
      "Ć": 212,
      "ć": 213,
      "Ĉ": 214,
      "ĉ": 215,
      "Ċ": 216,
      "ċ": 217,
      "Č": 218,
      "č": 219,
      "Ď": 220,
      "ď": 221,
      "Đ": 222,
      "đ": 223,
      "Ē": 224,
      "ē": 225,
      "Ĕ": 226,
      "ĕ": 227,
      "Ė": 228,
      "ė": 229,
      "Ę": 230,
      "ę": 231,
      "Ě": 232,
      "ě": 233,
      "Ĝ": 234,
      "ĝ": 235,
      "Ğ": 236,
      "ğ": 237,
      "Ġ": 238,
      "ġ": 239,
      "Ģ": 240,
      "ģ": 241,
      "Ĥ": 242,
      "ĥ": 243,
      "Ħ": 244,
      "ħ": 245,
      "Ĩ": 246,
      "ĩ": 247,
      "Ī": 248,
      "ī": 249,
      "Ĭ": 250,
      "ĭ": 251,
      "Į": 252,
      "į": 253,
      "İ": 254,
      "ı": 255,
      "Ĳ": 256,
      "ĳ": 257,
      "Ĵ": 258,
      "ĵ": 259,
      "Ķ": 260,
      "ķ": 261,
      "ĸ": 262,
      "Ĺ": 263,
      "ĺ": 264,
      "Ļ": 265,
      "ļ": 266,
      "Ľ": 267,
      "ľ": 268,
      "Ŀ": 269,
      "ŀ": 270,
      "Ł": 271,
      "ł": 272,
      "Ń": 273,
      "ĠĠ": 274,
      "ĠĠĠĠ": 275,
      "ĠĠĠĠĠĠĠĠ": 276,
      "ĠĠĠ": 277,
      "er": 278,
      "in": 279,
      "on": 280,
      "re": 281,
      "at": 282,
      "st": 283,
      "or": 284,
      "en": 285,
      "ĊĠĠĠĠĠĠĠĠ": 286,
      "ĠĠĠĠĠĠĠ": 287,
      "le": 288,
      "Ġt": 289,
      "an": 290,
      "se": 291,
      "Ġ=": 292,
      "Ġc": 293,
      "ĊĠĠĠ": 294,
      "al": 295,
      "ar": 296,
      "ĉĉ": 297,
      "ion": 298,
      "de": 299,
      "it": 300,
      "ĊĠĠĠĠĠĠĠ": 301,
      "--": 302,
      "ct": 303,
      ");": 304,
      "ss": 305,
      "ro": 306,
      "me": 307,
      "Ġ{": 308,
      "ic": 309,
      "la": 310,
      "he": 311,
      "ge": 312,
      "Ġf": 313,
      "Ġp": 314,
      "=\"": 315,
      "ing": 316,
      "is": 317,
      "Ġ<": 318,
      "ent": 319,
      "ut": 320,
      "//": 321,
      "ur": 322,
      "id": 323,
      "Ġ}": 324,
      "Ġn": 325,
      "Ġa": 326,
      "un": 327,
      "Ġ(": 328,
      "Ġ\"": 329,
      "ĊĠĠĠĠĠĠĠĠĠĠĠ": 330,
      "Ġ*": 331,
      "mp": 332,
      "ce": 333,
      "ate": 334,
      "Ġs": 335,
      "lo": 336,
      "**": 337,
      "Ġre": 338,
      "</": 339,
      "ĊĠ": 340,
      "Ġ0": 341,
      "ex": 342,
      "if": 343,
      "co": 344,
      "00": 345,
      "ame": 346,
      "ue": 347,
      "Ġb": 348,
      "iv": 349,
      "ad": 350,
      "ĊĠĠĠĠĠĠĠĠĠĠĠĠĠĠĠĠ": 351,
      "pe": 352,
      "lass": 353,
      "ĊĠĠĠĠ": 354,
      "\">": 355,
      "tr": 356,
      "Ċĉĉ": 357,
      "th": 358,
      "()": 359,
      "ig": 360,
      "ed": 361,
      "Ġin": 362,
      "----": 363,
      "Ġ'": 364,
      "ul": 365,
      "il": 366,
      "Ġthe": 367,
      "el": 368,
      "Ġd": 369,
      "Ġo": 370,
      "Ġm": 371,
      "sp": 372,
      "Ġv": 373,
      "Ċĉ": 374,
      "ol": 375,
      "Ġclass": 376,
      "ck": 377,
      "ub": 378,
      "ch": 379,
      "Ġw": 380,
      "get": 381,
      "ĠS": 382,
      "ht": 383,
      "ort": 384,
      "ot": 385,
      "et": 386,
      "es": 387,
      "urn": 388,
      "ra": 389,
      "Ġ1": 390,
      "ont": 391,
      "li": 392,
      "pt": 393,
      "==": 394,
      "Ġst": 395,
      "um": 396,
      "ation": 397,
      "ction": 398,
      "us": 399,
      "turn": 400,
      "ĊĠĠĠĠĠĠĠĠĠĠĠĠĠĠĠ": 401,
      "and": 402,
      "ata": 403,
      "age": 404,
      "ew": 405,
      "->": 406,
      "In": 407,
      "Ġth": 408,
      "ĊĠĠĠĠĠ": 409,
      "ype": 410,
      "\",": 411,
      "int": 412,
      "em": 413,
      "Ġ$": 414,
      "ext": 415,
      "ab": 416,
      "as": 417,
      "lic": 418,
      "',": 419,
      "ĠC": 420,
      "ri": 421,
      "Ġto": 422,
      "ap": 423,
      "ode": 424,
      "set": 425,
      "::": 426,
      "ĠĠĠĠĠĠĠĠĠĠĠĠĠĠĠĠ": 427,
      "div": 428,
      "ĠT": 429,
      "Re": 430,
      "ĠA": 431,
      "Ġif": 432,
      "imp": 433,
      "Ġh": 434,
      "am": 435,
      "ect": 436,
      "Ġde": 437,
      "end": 438,
      "ter": 439,
      "om": 440,
      "Ġ//": 441,
      "iz": 442,
      "up": 443,
      "ile": 444,
      "ist": 445,
      "od": 446,
      "(\"": 447,
      "****": 448,
      "ĊĊĠĠĠ": 449,
      "Ġreturn": 450,
      "im": 451,
      "span": 452,
      "alue": 453,
      "ver": 454,
      "--------": 455,
      "Ġ-": 456,
      "qu": 457,
      "##": 458,
      "('": 459,
      "Ġ2": 460,
      "Ġ[": 461,
      "orm": 462,
      "ow": 463,
      "te": 464,
      "import": 465,
      "to": 466,
      "Ġcon": 467,
      "ult": 468,
      "();": 469,
      "able": 470,
      "der": 471,
      "Ġ</": 472,
      "Ġse": 473,
      "ption": 474,
      "ine": 475,
      "con": 476,
      "ĠP": 477,
      "ublic": 478,
      "ĊĊ": 479,
      "Ġof": 480,
      "ert": 481,
      "Ġ+": 482,
      "ment": 483,
      "Ġthis": 484,
      "av": 485,
      "))": 486,
      "lf": 487,
      "ase": 488,
      "ack": 489,
      "td": 490,
      "Ġe": 491,
      "name": 492,
      "Ġ@": 493,
      "__": 494,
      "ĊĠĠĠĠĠĠĠĠĠĠĠĠĠĠĠĠĠĠĠ": 495,
      "Ġfor": 496,
      "ight": 497,
      "str": 498,
      "ith": 499,
      "ke": 500,
      "Ġis": 501,
      "os": 502,
      "ir": 503,
      "ff": 504,
      "ĠD": 505,
      "ers": 506,
      "rom": 507,
      "all": 508,
      "ject": 509,
      "ize": 510,
      "Ċĉĉĉĉ": 511,
      "ĠM": 512,
      "..": 513,
      "ĠL": 514,
      "op": 515,
      "ĠI": 516,
      "Ġ/": 517,
      "Ġg": 518,
      "====": 519,
      "fa": 520,
      "art": 521,
      "unction": 522,
      "sc": 523,
      "put": 524,
      "Ġ:": 525,
      "čĊ": 526,
      "St": 527,
      "Ġand": 528,
      "Ġ=>": 529,
      "tring": 530,
      "ime": 531,
      "tp": 532,
      "),": 533,
      "ĠN": 534,
      "Ġnew": 535,
      "ain": 536,
      "Ġ|": 537,
      "ref": 538,
      "Ġl": 539,
      "res": 540,
      "Ex": 541,
      "est": 542,
      "this": 543,
      "pro": 544,
      "ĠF": 545,
      "ity": 546,
      "our": 547,
      "out": 548,
      ").": 549,
      "ac": 550,
      "01": 551,
      "ath": 552,
      "Ġ.": 553,
      "ull": 554,
      "><": 555,
      "com": 556,
      "Ġr": 557,
      "que": 558,
      "oc": 559,
      "Ġ#": 560,
      "err": 561,
      "Ġpublic": 562,
      "ag": 563,
      "Ġ*/": 564,
      "ser": 565,
      "par": 566,
      "Name": 567,
      "ER": 568,
      "ĊĊĠĠĠĠĠĠĠ": 569,
      "Ġ&": 570,
      "use": 571,
      "ind": 572,
      "ĊĠĠĠĠĠĠĠĠĠ": 573,
      "fo": 574,
      "data": 575,
      "ice": 576,
      "IN": 577,
      "form": 578,
      "oid": 579,
      "ĠO": 580,
      "nt": 581,
      "Ċĉĉĉ": 582,
      "http": 583,
      "Ġtr": 584,
      "ĠB": 585,
      "Ġpro": 586,
      "pp": 587,
      "act": 588,
      "Ġex": 589,
      "lu": 590,
      "ire": 591,
      "ial": 592,
      "ĊĠĠĠĠĠĠĠĠĠĠĠĠĠĠĠĠĠĠĠĠĠĠĠĠ": 593,
      "one": 594,
      "ure": 595,
      "ign": 596,
      "\":": 597,
      "unt": 598,
      "px": 599,
      "ay": 600,
      "bject": 601,
      "Type": 602,
      "********": 603,
      "Ġi": 604,
      "col": 605,
      "ON": 606,
      "Ġor": 607,
      "ml": 608,
      "Ġ==": 609,
      "ll": 610,
      "arg": 611,
      "are": 612,
      "lay": 613,
      "bo": 614,
      "und": 615,
      "sh": 616,
      "return": 617,
      "],": 618,
      "Ġself": 619,
      "Ġy": 620,
      "Pro": 621,
      "Ġstr": 622,
      "log": 623,
      "add": 624,
      "dd": 625,
      "Id": 626,
      "ĠR": 627,
      "ĠĠĠĠĠ": 628,
      "ĠG": 629,
      "fig": 630,
      "iew": 631,
      "></": 632,
      "Ġname": 633,
      "row": 634,
      "cont": 635,
      "://": 636,
      "dex": 637,
      "Ġconst": 638,
      "ph": 639,
      "Ġbe": 640,
      "omp": 641,
      "Ġj": 642,
      "type": 643,
      "ĠE": 644,
      "ans": 645,
      "ord": 646,
      "Ġ3": 647,
      "ray": 648,
      "Cont": 649,
      "ĊĠĠĠĠĠĠĠĠĠĠĠĠĠĠĠĠĠĠĠĠĠĠĠ": 650,
      "Con": 651,
      "port": 652,
      "ĠU": 653,
      "0000": 654,
      "ma": 655,
      "ib": 656,
      "ft": 657,
      "ive": 658,
      "ve": 659,
      "quest": 660,
      "reate": 661,
      "ance": 662,
      "ory": 663,
      "Ġ!": 664,
      "Ġget": 665,
      "vent": 666,
      "def": 667,
      "``": 668,
      "RE": 669,
      "ly": 670,
      "')": 671,
      "Ġdata": 672,
      "Ġme": 673,
      "yle": 674,
      "['": 675,
      "odel": 676,
      "----------------": 677,
      "Ġfunction": 678,
      "\")": 679,
      "ource": 680,
      "Ġint": 681,
      "key": 682,
      "list": 683,
      "String": 684,
      "Ġfrom": 685,
      "og": 686,
      "lab": 687,
      "ition": 688,
      "ãģ": 689,
      "ost": 690,
      "ĊĠĠĠĠĠĠĠĠĠĠĠĠĠĠĠĠĠĠĠĠĠĠĠĠĠĠĠĠĠĠĠĠ": 691,
      "alse": 692,
      "Ġon": 693,
      "12": 694,
      "Ġit": 695,
      "user": 696,
      "Ġ_": 697,
      "uct": 698,
      "Ġle": 699,
      "ite": 700,
      "else": 701,
      "per": 702,
      "\");": 703,
      "ST": 704,
      "32": 705,
      "10": 706,
      "riv": 707,
      "Data": 708,
      "To": 709,
      "ary": 710,
      "De": 711,
      "vice": 712,
      "atic": 713,
      "ber": 714,
      "code": 715,
      "ant": 716,
      "Ġvalue": 717,
      "Ġhref": 718,
      "Ġas": 719,
      "ssage": 720,
      "ĠW": 721,
      "cess": 722,
      "ip": 723,
      "date": 724,
      "ĊĊĠ": 725,
      "ator": 726,
      "param": 727,
      "ard": 728,
      "app": 729,
      "List": 730,
      "):": 731,
      "Ġan": 732,
      "scri": 733,
      "20": 734,
      "iel": 735,
      "Ġtype": 736,
      "']": 737,
      "////": 738,
      "Ġch": 739,
      "Ġid": 740,
      "ange": 741,
      "html": 742,
      "ress": 743,
      "ass": 744,
      "Ġvoid": 745,
      "lement": 746,
      "Ġ`": 747,
      "ield": 748,
      "idth": 749,
      "io": 750,
      "ĠH": 751,
      "amp": 752,
      "ies": 753,
      "ore": 754,
      "Ġwith": 755,
      "js": 756,
      "16": 757,
      "Ġcont": 758,
      "Ġvar": 759,
      "čĊĠĠĠ": 760,
      "($": 761,
      "val": 762,
      "ĊĠĠ": 763,
      "ĠV": 764,
      "Se": 765,
      "ä¸": 766,
      "EN": 767,
      "atch": 768,
      "ink": 769,
      "Ġun": 770,
      "lect": 771,
      "mo": 772,
      "Ġal": 773,
      "loc": 774,
      "AT": 775,
      "fault": 776,
      "file": 777,
      "yst": 778,
      "OR": 779,
      "Ġset": 780,
      "value": 781,
      "https": 782,
      "Ġnot": 783,
      "error": 784,
      "lock": 785,
      "Ġnull": 786,
      "itle": 787,
      "ĠIn": 788,
      "low": 789,
      "Ġres": 790,
      "line": 791,
      "========": 792,
      "oint": 793,
      "Ġwh": 794,
      "gro": 795,
      "čĊĠĠĠĠĠĠĠ": 796,
      "ton": 797,
      "spon": 798,
      "ader": 799,
      "ang": 800,
      "Ġ},": 801,
      "Ġ4": 802,
      "clu": 803,
      "ule": 804,
      "self": 805,
      "text": 806,
      "class": 807,
      "Ġ>": 808,
      "rint": 809,
      "rivate": 810,
      "ystem": 811,
      "IT": 812,
      "ID": 813,
      "En": 814,
      "11": 815,
      "####": 816,
      "Ġelse": 817,
      "size": 818,
      "bu": 819,
      "ail": 820,
      "Ġx": 821,
      "string": 822,
      "ener": 823,
      "Ġcol": 824,
      "eng": 825,
      "ork": 826,
      "so": 827,
      "ument": 828,
      "Ġ--": 829,
      "](": 830,
      "ax": 831,
      "rr": 832,
      "utton": 833,
      "ï¼": 834,
      "Value": 835,
      "Ġstring": 836,
      "ust": 837,
      "Ch": 838,
      "ak": 839,
      "ong": 840,
      "ill": 841,
      "ception": 842,
      "ãĥ": 843,
      "label": 844,
      "che": 845,
      "ery": 846,
      "ou": 847,
      "ild": 848,
      "64": 849,
      "ide": 850,
      "));": 851,
      "AL": 852,
      "Ġtrue": 853,
      "\";": 854,
      "AR": 855,
      "Ġ5": 856,
      "ute": 857,
      "Ser": 858,
      "ense": 859,
      "ace": 860,
      "umber": 861,
      "Ġbo": 862,
      "SE": 863,
      "sponse": 864,
      "Ċĉĉĉĉĉĉ": 865,
      "ix": 866,
      "order": 867,
      "min": 868,
      "ãĤ": 869,
      "var": 870,
      "Ġ)": 871,
      "load": 872,
      "atus": 873,
      "ok": 874,
      "Col": 875,
      "rc": 876,
      "lient": 877,
      "\"></": 878,
      "../": 879,
      "LE": 880,
      "\"><": 881,
      "Ġcom": 882,
      "Ġdo": 883,
      "ens": 884,
      "pert": 885,
      "ec": 886,
      "br": 887,
      "urre": 888,
      "thod": 889,
      "');": 890,
      "25": 891,
      "Ġdef": 892,
      "ere": 893,
      "clude": 894,
      "Ġfalse": 895,
      "const": 896,
      "Ar": 897,
      "image": 898,
      "Ġfile": 899,
      "';": 900,
      "},": 901,
      "new": 902,
      "ia": 903,
      "ĠString": 904,
      "test": 905,
      "ho": 906,
      "yn": 907,
      "uth": 908,
      "Me": 909,
      "ĠRe": 910,
      "Ġ!=": 911,
      "ms": 912,
      "Ġuse": 913,
      "eb": 914,
      "().": 915,
      "ence": 916,
      "Ġby": 917,
      "='": 918,
      "Ġhe": 919,
      "ĊĠĠĠĠĠĠĠĠĠĠĠĠĠĠĠĠĠĠĠĠĠĠĠĠĠĠĠ": 920,
      "read": 921,
      "Ġthat": 922,
      "Ġ///": 923,
      "rror": 924,
      "public": 925,
      "item": 926,
      "Ġk": 927,
      "ger": 928,
      "ey": 929,
      "ength": 930,
      "Ġpar": 931,
      "99": 932,
      "isp": 933,
      "Exception": 934,
      "ud": 935,
      "Set": 936,
      "Ġstatic": 937,
      "ne": 938,
      "own": 939,
      "quire": 940,
      "late": 941,
      "back": 942,
      "ach": 943,
      "inal": 944,
      "DE": 945,
      "Res": 946,
      "ave": 947,
      "qual": 948,
      "Ġprivate": 949,
      "urrent": 950,
      "02": 951,
      "array": 952,
      "ast": 953,
      "url": 954,
      "ob": 955,
      "Ġ%": 956,
      "pect": 957,
      "15": 958,
      "ample": 959,
      "];": 960,
      "md": 961,
      "ĊĠĠĠĠĠĠĠĠĠĠĠĠĠ": 962,
      "ask": 963,
      "Par": 964,
      "ssion": 965,
      "****************": 966,
      "FF": 967,
      "Key": 968,
      "ps": 969,
      "čĊč": 970,
      "AN": 971,
      "tem": 972,
      "mit": 973,
      "CT": 974,
      "be": 975,
      "onent": 976,
      "14": 977,
      "path": 978,
      "Ġ&&": 979,
      "ssert": 980,
      "emp": 981,
      "Object": 982,
      "ww": 983,
      "Ġat": 984,
      "].": 985,
      "Get": 986,
      "':": 987,
      "pec": 988,
      "Ġ\\": 989,
      "ache": 990,
      "using": 991,
      "stance": 992,
      "input": 993,
      "arch": 994,
      "roll": 995,
      "ody": 996,
      "pre": 997,
      "pos": 998,
      "Ġend": 999,
      "13": 1000,
      "for": 1001,
      "index": 1002,
      "Tr": 1003,
      "ree": 1004,
      "View": 1005,
      "File": 1006,
      "Error": 1007,
      "arget": 1008,
      "ĠÐ": 1009,
      "comp": 1010,
      "Ġ?": 1011,
      "ĠĠĠĠĠĠ": 1012,
      "ĠThe": 1013,
      "unc": 1014,
      "ie": 1015,
      "of": 1016,
      "ann": 1017,
      "çļ": 1018,
      "count": 1019,
      "Ġstyle": 1020,
      "time": 1021,
      "çļĦ": 1022,
      "loat": 1023,
      "ptions": 1024,
      "right": 1025,
      "Ġcomp": 1026,
      "Item": 1027,
      "Text": 1028,
      "18": 1029,
      "Ġ/**": 1030,
      "ava": 1031,
      "ash": 1032,
      "\"\"": 1033,
      "čĊĠĠĠĠĠĠĠĠĠĠĠ": 1034,
      "ãĢ": 1035,
      "UL": 1036,
      "Bu": 1037,
      "ĊĊĠĠĠĠĠĠĠĠĠĠĠ": 1038,
      "rame": 1039,
      "Comp": 1040,
      "(),": 1041,
      "img": 1042,
      "Time": 1043,
      "Ġtest": 1044,
      "/*": 1045,
      "ken": 1046,
      "cri": 1047,
      "());": 1048,
      "include": 1049,
      "function": 1050,
      "color": 1051,
      "Ġu": 1052,
      "ng": 1053,
      "04": 1054,
      "SS": 1055,
      "ty": 1056,
      "let": 1057,
      "Ġen": 1058,
      "word": 1059,
      "ry": 1060,
      "indow": 1061,
      "ount": 1062,
      "Test": 1063,
      "trib": 1064,
      "mary": 1065,
      "ï¼Į": 1066,
      "ĠJ": 1067,
      "čĊĉ": 1068,
      "odule": 1069,
      "33": 1070,
      "ME": 1071,
      "base": 1072,
      "Ġ});": 1073,
      "ole": 1074,
      "```": 1075,
      "State": 1076,
      "ations": 1077,
      "Ġ-->": 1078,
      "uld": 1079,
      "util": 1080,
      "++": 1081,
      "Ð¾": 1082,
      "Ġlet": 1083,
      "perty": 1084,
      "script": 1085,
      "By": 1086,
      "icense": 1087,
      "17": 1088,
      "rite": 1089,
      "ual": 1090,
      "link": 1091,
      "ilter": 1092,
      "ccess": 1093,
      "table": 1094,
      "umn": 1095,
      "ome": 1096,
      "from": 1097,
      "Ġ->": 1098,
      "ifi": 1099,
      "ION": 1100,
      "work": 1101,
      "view": 1102,
      "mand": 1103,
      "Ġout": 1104,
      "title": 1105,
      "Ġ);": 1106,
      "heck": 1107,
      "sum": 1108,
      "Ġare": 1109,
      "Ġ6": 1110,
      "24": 1111,
      "space": 1112,
      "map": 1113,
      "top": 1114,
      "19": 1115,
      "sub": 1116,
      "ameter": 1117,
      "ded": 1118,
      "An": 1119,
      "Ġtext": 1120,
      "red": 1121,
      "Ġro": 1122,
      "ings": 1123,
      "face": 1124,
      "ream": 1125,
      "tn": 1126,
      "enter": 1127,
      "Ðµ": 1128,
      "void": 1129,
      "ock": 1130,
      "Th": 1131,
      "ark": 1132,
      "._": 1133,
      "Ġsh": 1134,
      "Add": 1135,
      "////////": 1136,
      "Ġresult": 1137,
      "update": 1138,
      "000": 1139,
      "ific": 1140,
      "ale": 1141,
      "Ġyou": 1142,
      "ther": 1143,
      "Bo": 1144,
      "UT": 1145,
      "lete": 1146,
      "80": 1147,
      "RO": 1148,
      "[]": 1149,
      "rol": 1150,
      "55": 1151,
      "IC": 1152,
      "ector": 1153,
      "Ð°": 1154,
      "ep": 1155,
      "ocument": 1156,
      "ground": 1157,
      "Ġorg": 1158,
      "Ġval": 1159,
      "model": 1160,
      "struct": 1161,
      "ler": 1162,
      "width": 1163,
      "At": 1164,
      "ated": 1165,
      "lection": 1166,
      "Un": 1167,
      "isplay": 1168,
      "icon": 1169,
      "Info": 1170,
      "åı": 1171,
      "Event": 1172,
      "ffer": 1173,
      "Ġadd": 1174,
      "30": 1175,
      "content": 1176,
      "mb": 1177,
      "((": 1178,
      "Ċĉĉĉĉĉ": 1179,
      "fer": 1180,
      "Ġcase": 1181,
      "())": 1182,
      "create": 1183,
      "};": 1184,
      "ĠSystem": 1185,
      "22": 1186,
      "iter": 1187,
      "query": 1188,
      "ify": 1189,
      "Config": 1190,
      "lace": 1191,
      "irst": 1192,
      "ync": 1193,
      "php": 1194,
      "print": 1195,
      "ithub": 1196,
      "={": 1197,
      "ise": 1198,
      "ĊĠĠĠĠĠĠĠĠĠĠĠĠĠĠĠĠĠĠĠĠĠĠĠĠĠĠĠĠĠĠĠ": 1199,
      "button": 1200,
      "gist": 1201,
      "fe": 1202,
      "ĠLicense": 1203,
      "define": 1204,
      "Ġapp": 1205,
      "--------------------------------": 1206,
      "raw": 1207,
      "roup": 1208,
      "34": 1209,
      "ĉĉĉĉ": 1210,
      "Form": 1211,
      "ta": 1212,
      "Map": 1213,
      "args": 1214,
      "Request": 1215,
      "Ġì": 1216,
      "Ġlist": 1217,
      "style": 1218,
      "])": 1219,
      "Ġcan": 1220,
      "Ġ10": 1221,
      "ager": 1222,
      "75": 1223,
      "Path": 1224,
      "Ġ**": 1225,
      "Service": 1226,
      "action": 1227,
      "PI": 1228,
      "Ġser": 1229,
      "ride": 1230,
      "uble": 1231,
      "group": 1232,
      "ainer": 1233,
      "Ġkey": 1234,
      "Ġsrc": 1235,
      "Node": 1236,
      "github": 1237,
      "Ġla": 1238,
      "Ġerror": 1239,
      "Ġbu": 1240,
      "ackage": 1241,
      "pen": 1242,
      "Ġ||": 1243,
      "uto": 1244,
      "ee": 1245,
      "Ġ/*": 1246,
      "org": 1247,
      "config": 1248,
      "ersion": 1249,
      "Model": 1250,
      "reak": 1251,
      "Ġ:=": 1252,
      "ait": 1253,
      "Ġ__": 1254,
      "length": 1255,
      "opy": 1256,
      "irect": 1257,
      "py": 1258,
      "Ġuser": 1259,
      "by": 1260,
      "cc": 1261,
      "User": 1262,
      "Ġli": 1263,
      "ick": 1264,
      "ĠTh": 1265,
      "vel": 1266,
      "201": 1267,
      "ä»": 1268,
      "itial": 1269,
      "Qu": 1270,
      "gin": 1271,
      "gra": 1272,
      "Ġ8": 1273,
      "Ġerr": 1274,
      "ĊĊĉ": 1275,
      "argin": 1276,
      "anager": 1277,
      "Ġimport": 1278,
      "result": 1279,
      "Ġtime": 1280,
      "Ġassert": 1281,
      "mon": 1282,
      "export": 1283,
      "50": 1284,
      "tern": 1285,
      "Ġdefault": 1286,
      "db": 1287,
      "66": 1288,
      "Com": 1289,
      "Index": 1290,
      "try": 1291,
      "ern": 1292,
      "info": 1293,
      "Ġ<<": 1294,
      "Ġ201": 1295,
      "({": 1296,
      "gs": 1297,
      "Ġstd": 1298,
      "arent": 1299,
      "TR": 1300,
      "Ð¸": 1301,
      "PE": 1302,
      "Size": 1303,
      "Message": 1304,
      "ateg": 1305,
      "we": 1306,
      "/**": 1307,
      "mi": 1308,
      "Ġwidth": 1309,
      "verride": 1310,
      "================": 1311,
      "pl": 1312,
      "pi": 1313,
      "âĢ": 1314,
      "Ġfinal": 1315,
      "nb": 1316,
      "state": 1317,
      "Array": 1318,
      "Element": 1319,
      "gr": 1320,
      "...": 1321,
      "ĠĠĠĠĠĠĠĠĠĠĠĠĠĠĠĠĠĠĠĠĠĠĠĠĠĠĠĠĠĠĠĠ": 1322,
      "box": 1323,
      "body": 1324,
      "go": 1325,
      "pr": 1326,
      "){": 1327,
      "enu": 1328,
      "Ġwe": 1329,
      "28": 1330,
      "lick": 1331,
      "AD": 1332,
      "Ġz": 1333,
      "ÑĤ": 1334,
      "He": 1335,
      "son": 1336,
      "core": 1337,
      "Ġsize": 1338,
      "Ġ/>": 1339,
      "Code": 1340,
      "olean": 1341,
      "Log": 1342,
      "[\"": 1343,
      "MA": 1344,
      "TE": 1345,
      "Ġchar": 1346,
      "cript": 1347,
      "Context": 1348,
      "Ġcreate": 1349,
      "Sh": 1350,
      "andle": 1351,
      "uration": 1352,
      "Ġ7": 1353,
      "39": 1354,
      "Ġ()": 1355,
      "ush": 1356,
      "Ġlog": 1357,
      "valid": 1358,
      "GE": 1359,
      "sign": 1360,
      "UR": 1361,
      "Ġall": 1362,
      "!--": 1363,
      "trans": 1364,
      "di": 1365,
      "Equal": 1366,
      "temp": 1367,
      "Ġrequire": 1368,
      "Ġwill": 1369,
      "bar": 1370,
      "json": 1371,
      "ĠSt": 1372,
      "åĪ": 1373,
      "LO": 1374,
      "########": 1375,
      "Ġcolor": 1376,
      "ound": 1377,
      "api": 1378,
      "lob": 1379,
      "node": 1380,
      "duct": 1381,
      "Ġback": 1382,
      "assert": 1383,
      "start": 1384,
      "ys": 1385,
      "not": 1386,
      "layer": 1387,
      "ĠCon": 1388,
      "roller": 1389,
      "35": 1390,
      "osition": 1391,
      "left": 1392,
      "Le": 1393,
      "Ġborder": 1394,
      "Or": 1395,
      "27": 1396,
      "ĠK": 1397,
      "38": 1398,
      "ĠPro": 1399,
      "CH": 1400,
      "request": 1401,
      "Class": 1402,
      "CO": 1403,
      "26": 1404,
      "ake": 1405,
      "wh": 1406,
      "tom": 1407,
      "cond": 1408,
      "Field": 1409,
      "æľ": 1410,
      "36": 1411,
      "the": 1412,
      "Ã©": 1413,
      "sed": 1414,
      "cre": 1415,
      "font": 1416,
      "CE": 1417,
      "\"]": 1418,
      "ider": 1419,
      "max": 1420,
      "ined": 1421,
      "Ġext": 1422,
      "ell": 1423,
      "Ġ(!": 1424,
      "ãĢĤ": 1425,
      "IS": 1426,
      "ics": 1427,
      "summary": 1428,
      "no": 1429,
      "adding": 1430,
      "local": 1431,
      "nbsp": 1432,
      "ster": 1433,
      "lication": 1434,
      "App": 1435,
      "05": 1436,
      "ices": 1437,
      "cl": 1438,
      "37": 1439,
      "ner": 1440,
      "Ġarray": 1441,
      "29": 1442,
      "ilder": 1443,
      "ld": 1444,
      "ustom": 1445,
      "Ġjava": 1446,
      "07": 1447,
      "ULL": 1448,
      "cho": 1449,
      "Ġobject": 1450,
      "Result": 1451,
      "Ġlo": 1452,
      "point": 1453,
      "Not": 1454,
      "äº": 1455,
      "ĠĠĠĠĠĠĠĠĠĠĠ": 1456,
      "fore": 1457,
      "Im": 1458,
      "ative": 1459,
      "message": 1460,
      "uthor": 1461,
      "Ġper": 1462,
      "44": 1463,
      "Ġno": 1464,
      "08": 1465,
      "select": 1466,
      "cord": 1467,
      "Ġform": 1468,
      "object": 1469,
      "Ġexpect": 1470,
      "Ð½": 1471,
      "Int": 1472,
      "06": 1473,
      "da": 1474,
      "ottom": 1475,
      "Ġthrow": 1476,
      "andler": 1477,
      "Of": 1478,
      "older": 1479,
      "cept": 1480,
      "Ġprint": 1481,
      "{{": 1482,
      "Ġ};": 1483,
      "idd": 1484,
      "block": 1485,
      "press": 1486,
      "num": 1487,
      "do": 1488,
      "Up": 1489,
      "The": 1490,
      "scription": 1491,
      "old": 1492,
      "ich": 1493,
      "ning": 1494,
      "Ġ9": 1495,
      "./": 1496,
      "check": 1497,
      "ware": 1498,
      "čĊĉĉ": 1499,
      "over": 1500,
      "nav": 1501,
      "Ġ+=": 1502,
      "Ġfont": 1503,
      "po": 1504,
      "field": 1505,
      "Ġconfig": 1506,
      "ĊĠĠĠĠĠĠĠĠĠĠĠĠĠĠĠĠĠ": 1507,
      "sm": 1508,
      "status": 1509,
      "aw": 1510,
      "ql": 1511,
      "Ġnumber": 1512,
      "net": 1513,
      ".</": 1514,
      "func": 1515,
      "mem": 1516,
      "ca": 1517,
      "cur": 1518,
      "ution": 1519,
      "post": 1520,
      "88": 1521,
      "09": 1522,
      "Ġtrans": 1523,
      "ature": 1524,
      "AS": 1525,
      "AB": 1526,
      "Ġnil": 1527,
      "stra": 1528,
      "Ġsub": 1529,
      "Date": 1530,
      "UN": 1531,
      "ren": 1532,
      "move": 1533,
      "its": 1534,
      "çĶ": 1535,
      "true": 1536,
      "ized": 1537,
      "ED": 1538,
      "Color": 1539,
      "page": 1540,
      "ĠGet": 1541,
      "append": 1542,
      "čĊĠĠĠĠĠĠĠĠĠĠĠĠĠĠĠ": 1543,
      "Ġrequest": 1544,
      "event": 1545,
      "lt": 1546,
      "åĲ": 1547,
      "Response": 1548,
      "tx": 1549,
      "lot": 1550,
      "www": 1551,
      "df": 1552,
      "ÑĢ": 1553,
      "}}": 1554,
      "option": 1555,
      ">(": 1556,
      "Ġspec": 1557,
      "default": 1558,
      "Be": 1559,
      "å®": 1560,
      "cle": 1561,
      "Ġcontent": 1562,
      "upport": 1563,
      "ING": 1564,
      "DO": 1565,
      "][": 1566,
      "IL": 1567,
      "lex": 1568,
      "assword": 1569,
      "As": 1570,
      "otal": 1571,
      "ui": 1572,
      "led": 1573,
      "lose": 1574,
      "Ġmethod": 1575,
      "css": 1576,
      "Client": 1577,
      "Count": 1578,
      "åħ": 1579,
      "Ð¾Ð": 1580,
      "Ġso": 1581,
      "Ġinput": 1582,
      "Ġne": 1583,
      "cy": 1584,
      "static": 1585,
      "ends": 1586,
      "On": 1587,
      "Ġob": 1588,
      "Ġstart": 1589,
      "uccess": 1590,
      "hould": 1591,
      "tribute": 1592,
      "Ġitem": 1593,
      "ater": 1594,
      "Ġmessage": 1595,
      "ĊĠĠĠĠĠĠĠĠĠĠĠĠĠĠĠĠĠĠĠĠĠĠĠĠĠĠĠĠĠĠĠĠĠĠĠ": 1596,
      "Des": 1597,
      "ENT": 1598,
      "sole": 1599,
      "Ġ\"\"\"": 1600,
      "itor": 1601,
      "'s": 1602,
      "56": 1603,
      "ses": 1604,
      "Ġindex": 1605,
      "til": 1606,
      "Ġbool": 1607,
      "vert": 1608,
      "tings": 1609,
      "Ġtitle": 1610,
      "Manager": 1611,
      "Ñģ": 1612,
      "nection": 1613,
      "Ġ===": 1614,
      "Ġimp": 1615,
      "ical": 1616,
      "ä½": 1617,
      "Ġinter": 1618,
      "Ġ,": 1619,
      "03": 1620,
      "allback": 1621,
      "MP": 1622,
      "../../": 1623,
      "web": 1624,
      "png": 1625,
      "čĊĠ": 1626,
      "vers": 1627,
      "Ġpath": 1628,
      "ĠY": 1629,
      "gt": 1630,
      "IG": 1631,
      "head": 1632,
      "è¿": 1633,
      "Ġline": 1634,
      "ected": 1635,
      "Point": 1636,
      "ĠDe": 1637,
      "Loc": 1638,
      "af": 1639,
      "TH": 1640,
      "reg": 1641,
      "package": 1642,
      "21": 1643,
      "Out": 1644,
      "gister": 1645,
      "Inter": 1646,
      "ĠX": 1647,
      "Ġbreak": 1648,
      "Group": 1649,
      "Lo": 1650,
      "Ġnode": 1651,
      "Button": 1652,
      "ape": 1653,
      "Ġsc": 1654,
      "Ġheight": 1655,
      "ible": 1656,
      "Status": 1657,
      "std": 1658,
      "Ġco": 1659,
      "raph": 1660,
      "ank": 1661,
      "Ġcode": 1662,
      "ĠThis": 1663,
      "Table": 1664,
      "Ġhas": 1665,
      "place": 1666,
      "=\"#": 1667,
      "ĠUn": 1668,
      "Al": 1669,
      "Ġab": 1670,
      "du": 1671,
      "mod": 1672,
      "77": 1673,
      "ins": 1674,
      "iable": 1675,
      "Image": 1676,
      "current": 1677,
      "format": 1678,
      "ension": 1679,
      "Ġany": 1680,
      "bug": 1681,
      "ĊĊĠĠĠĠĠ": 1682,
      "annel": 1683,
      "Ġunder": 1684,
      "Ã¡": 1685,
      "section": 1686,
      "Ġcurrent": 1687,
      "istri": 1688,
      "height": 1689,
      "ams": 1690,
      "ĠEx": 1691,
      "---": 1692,
      "header": 1693,
      "Ġpre": 1694,
      "100": 1695,
      "down": 1696,
      "ender": 1697,
      "For": 1698,
      "dir": 1699,
      "rop": 1700,
      "doc": 1701,
      "ffset": 1702,
      "Ġmax": 1703,
      "btn": 1704,
      "Ġstate": 1705,
      "char": 1706,
      "Ġ})": 1707,
      "With": 1708,
      "Ġ20": 1709,
      "inter": 1710,
      "len": 1711,
      "Ġhave": 1712,
      "client": 1713,
      "Ġ100": 1714,
      ";</": 1715,
      "è¯": 1716,
      "Ġread": 1717,
      "bl": 1718,
      "ĠAr": 1719,
      "ally": 1720,
      "Input": 1721,
      "Query": 1722,
      "source": 1723,
      "ES": 1724,
      "wait": 1725,
      "','": 1726,
      "48": 1727,
      "Ġfa": 1728,
      "Ġbackground": 1729,
      "case": 1730,
      "æĸ": 1731,
      "Component": 1732,
      "Ġmargin": 1733,
      "76": 1734,
      "ĠIN": 1735,
      "ient": 1736,
      "').": 1737,
      "Ġtarget": 1738,
      "Ġmodel": 1739,
      "å¤": 1740,
      "sv": 1741,
      "Val": 1742,
      "Override": 1743,
      "init": 1744,
      "sw": 1745,
      "(&": 1746,
      "Ġë": 1747,
      "Ġyour": 1748,
      "45": 1749,
      "ĠList": 1750,
      "eturn": 1751,
      "mt": 1752,
      "Is": 1753,
      "ĠNone": 1754,
      "US": 1755,
      "tes": 1756,
      "Ġevent": 1757,
      "lib": 1758,
      "Sc": 1759,
      "ĊĠĠĠĠĠĠ": 1760,
      "Sub": 1761,
      "abled": 1762,
      "ote": 1763,
      "Trans": 1764,
      "<?": 1765,
      "###": 1766,
      "Property": 1767,
      "ìĿ": 1768,
      "Action": 1769,
      "CK": 1770,
      "any": 1771,
      "ERR": 1772,
      "LA": 1773,
      "cope": 1774,
      "Ġcheck": 1775,
      "align": 1776,
      "istrib": 1777,
      "23": 1778,
      "mission": 1779,
      "78": 1780,
      "Util": 1781,
      "pan": 1782,
      "search": 1783,
      "Ġar": 1784,
      "ML": 1785,
      "********************************": 1786,
      "&#": 1787,
      "HE": 1788,
      "]);": 1789,
      "ĊĠĠĠĠĠĠĠĠĠĠĠĠ": 1790,
      "lable": 1791,
      "main": 1792,
      "Ġup": 1793,
      "ĊĠĠĠĠĊĠĠĠ": 1794,
      "TY": 1795,
      "Ġ}}": 1796,
      "/>": 1797,
      "æĺ": 1798,
      "gg": 1799,
      "\").": 1800,
      "bottom": 1801,
      "${": 1802,
      "Ġbase": 1803,
      "à¸": 1804,
      "FO": 1805,
      "Content": 1806,
      "abel": 1807,
      "Ġshould": 1808,
      "})": 1809,
      "lobal": 1810,
      "ameters": 1811,
      "ĠNULL": 1812,
      "Ġrun": 1813,
      "49": 1814,
      "frame": 1815,
      "rad": 1816,
      "Line": 1817,
      "Select": 1818,
      "Str": 1819,
      "ference": 1820,
      "ategory": 1821,
      "ĠSe": 1822,
      "Ġent": 1823,
      "});": 1824,
      "*/": 1825,
      "find": 1826,
      "module": 1827,
      "mpty": 1828,
      "dis": 1829,
      "Controller": 1830,
      "ails": 1831,
      "Ġtry": 1832,
      "ik": 1833,
      "Ġrel": 1834,
      "Ġ[]": 1835,
      "PO": 1836,
      "open": 1837,
      "lang": 1838,
      "Lay": 1839,
      "æĪ": 1840,
      "float": 1841,
      "65": 1842,
      "Co": 1843,
      "Ġresponse": 1844,
      "Window": 1845,
      "emplate": 1846,
      "Ġtra": 1847,
      "Ġfloat": 1848,
      "ug": 1849,
      "ved": 1850,
      "æķ": 1851,
      "Ġurl": 1852,
      "Ġ((": 1853,
      "my": 1854,
      "Ġwhen": 1855,
      "argument": 1856,
      "OT": 1857,
      "Act": 1858,
      "%;": 1859,
      "ish": 1860,
      "with": 1861,
      "Change": 1862,
      "Ġright": 1863,
      "ptr": 1864,
      "Ġfield": 1865,
      "utes": 1866,
      "ttp": 1867,
      "uage": 1868,
      "rl": 1869,
      "Token": 1870,
      "Instance": 1871,
      "ts": 1872,
      "Base": 1873,
      "True": 1874,
      "ai": 1875,
      "Ġstruct": 1876,
      "79": 1877,
      "ified": 1878,
      "Ġ($": 1879,
      "rid": 1880,
      "Ġupdate": 1881,
      "center": 1882,
      "Ġact": 1883,
      "lugin": 1884,
      "ĠSet": 1885,
      "tag": 1886,
      "null": 1887,
      "ization": 1888,
      "ments": 1889,
      "68": 1890,
      "example": 1891,
      "CON": 1892,
      "rix": 1893,
      "uint": 1894,
      "200": 1895,
      "igh": 1896,
      "Create": 1897,
      "images": 1898,
      "template": 1899,
      "med": 1900,
      "Fact": 1901,
      "namespace": 1902,
      "perties": 1903,
      "ntity": 1904,
      "false": 1905,
      "40": 1906,
      "LI": 1907,
      "69": 1908,
      "lat": 1909,
      "oin": 1910,
      "Ġusing": 1911,
      "orage": 1912,
      "Ġuint": 1913,
      "ifier": 1914,
      "nd": 1915,
      "Box": 1916,
      "last": 1917,
      "Ġboolean": 1918,
      "email": 1919,
      "sg": 1920,
      "ET": 1921,
      "////////////////": 1922,
      "az": 1923,
      "Per": 1924,
      "push": 1925,
      "System": 1926,
      "Builder": 1927,
      "lin": 1928,
      "Ġmin": 1929,
      "uper": 1930,
      "Page": 1931,
      "atrix": 1932,
      "åĬ": 1933,
      "Source": 1934,
      "++)": 1935,
      "ftware": 1936,
      "andom": 1937,
      "las": 1938,
      "flow": 1939,
      "next": 1940,
      "target": 1941,
      "lease": 1942,
      "ĠQ": 1943,
      "tected": 1944,
      "Method": 1945,
      "AME": 1946,
      "Ġ['": 1947,
      "FI": 1948,
      "vide": 1949,
      "ures": 1950,
      "vider": 1951,
      "Ġel": 1952,
      "Ġoutput": 1953,
      "vis": 1954,
      "sets": 1955,
      "From": 1956,
      "All": 1957,
      "TO": 1958,
      "Ġinstance": 1959,
      "response": 1960,
      "rit": 1961,
      "ĠOR": 1962,
      "New": 1963,
      "Ed": 1964,
      "filter": 1965,
      "Ġused": 1966,
      "Ġsol": 1967,
      "31": 1968,
      "ĠTr": 1969,
      "src": 1970,
      "Ġtable": 1971,
      "uted": 1972,
      "icro": 1973,
      "card": 1974,
      "Ġ<!--": 1975,
      "write": 1976,
      "59": 1977,
      "Number": 1978,
      "Ġnum": 1979,
      "Stream": 1980,
      "ĠAN": 1981,
      "Ġdocument": 1982,
      "ors": 1983,
      "Ġmay": 1984,
      "method": 1985,
      "ormal": 1986,
      "([": 1987,
      "ĊĊĠĠĠĠĠĠĠĠĠĠĠĠĠĠĠ": 1988,
      "\"),": 1989,
      "posit": 1990,
      "ĠApp": 1991,
      "Ġdisplay": 1992,
      "ogle": 1993,
      "Ġpoint": 1994,
      "itch": 1995,
      "///": 1996,
      "Ġwhich": 1997,
      "Ġcontext": 1998,
      "idden": 1999,
      "pri": 2000,
      "rap": 2001,
      "Handler": 2002,
      "ci": 2003,
      "Ġextends": 2004,
      "Ġsource": 2005,
      "icle": 2006,
      "çĶ¨": 2007,
      "riter": 2008,
      "context": 2009,
      "container": 2010,
      "has": 2011,
      "ility": 2012,
      "TI": 2013,
      ";&": 2014,
      "Ġpadding": 2015,
      "HT": 2016,
      "ĠĠĠĠĠĠĠĠĠĠĠĠĠĠĠ": 2017,
      ">>": 2018,
      "Ġawait": 2019,
      "private": 2020,
      "ĠĊ": 2021,
      "Ġlabel": 2022,
      "pper": 2023,
      "ification": 2024,
      "Ġnp": 2025,
      "INT": 2026,
      "'>": 2027,
      "Ġother": 2028,
      "Ġad": 2029,
      "ba": 2030,
      "show": 2031,
      "Tra": 2032,
      "à®": 2033,
      "opyright": 2034,
      "formation": 2035,
      "74": 2036,
      "lp": 2037,
      "number": 2038,
      "ates": 2039,
      "DI": 2040,
      "rag": 2041,
      "Ġone": 2042,
      "EX": 2043,
      "output": 2044,
      "mark": 2045,
      "Ġ16": 2046,
      "location": 2047,
      "irt": 2048,
      "Gener": 2049,
      "env": 2050,
      "FA": 2051,
      "ose": 2052,
      "roid": 2053,
      "ats": 2054,
      "gram": 2055,
      "ov": 2056,
      "âĶ": 2057,
      "vices": 2058,
      "teger": 2059,
      "58": 2060,
      "=>": 2061,
      "ollow": 2062,
      "ear": 2063,
      "fin": 2064,
      "\\\"": 2065,
      "control": 2066,
      "Ġelement": 2067,
      "Ġdouble": 2068,
      "defined": 2069,
      "ç»": 2070,
      "require": 2071,
      "Ġpart": 2072,
      "version": 2073,
      "Ġleft": 2074,
      "'t": 2075,
      "Ġus": 2076,
      "UE": 2077,
      "SON": 2078,
      "ating": 2079,
      "ĊĠĠĠĠĠĠĠĠĠĠĠĠĠĠĠĠĠĠĠĠĠĠĠĠĠĠĠĠĠĠĠĠĠĠĠĠĠĠĠĠĠĠĠĠĠĠĠĠ": 2080,
      "Ġhttp": 2081,
      "ename": 2082,
      "Ġauto": 2083,
      "stall": 2084,
      "Imp": 2085,
      "AP": 2086,
      "ove": 2087,
      "idget": 2088,
      "Ġwork": 2089,
      "Var": 2090,
      "ĊĠĠĠĠĠĠĠĠĠĠĠĠĠĠĠĠĠĠĠĠĠĠĠĠĠĠĠĠĠĠĠĠĠĠĠĠĠĠĠ": 2091,
      "signed": 2092,
      "00000000": 2093,
      "Label": 2094,
      "åľ": 2095,
      "Ċĉĉĉĉĉĉĉĉ": 2096,
      "íķ": 2097,
      "ĠĠĠĠĠĠĠĠĠ": 2098,
      "Ġthen": 2099,
      "soft": 2100,
      "Ġposition": 2101,
      "Ġ]": 2102,
      "Ġ15": 2103,
      "endif": 2104,
      "ccount": 2105,
      "ATE": 2106,
      "Entity": 2107,
      "'],": 2108,
      "GL": 2109,
      "air": 2110,
      "ular": 2111,
      "ĠIf": 2112,
      "Ġrow": 2113,
      "params": 2114,
      "tract": 2115,
      "Ġtop": 2116,
      "Ġmap": 2117,
      "sol": 2118,
      "Ġdi": 2119,
      "server": 2120,
      "ting": 2121,
      "heet": 2122,
      "part": 2123,
      "obj": 2124,
      "No": 2125,
      "ene": 2126,
      "irectory": 2127,
      "Options": 2128,
      "ĠData": 2129,
      "Ġpage": 2130,
      "Buffer": 2131,
      "Ref": 2132,
      "border": 2133,
      "Ġlen": 2134,
      "ingle": 2135,
      "\"))": 2136,
      "resent": 2137,
      "tt": 2138,
      "strong": 2139,
      "equal": 2140,
      "xff": 2141,
      "ternal": 2142,
      "ä¸Ģ": 2143,
      "Resource": 2144,
      "license": 2145,
      "Ġview": 2146,
      "ero": 2147,
      "è®": 2148,
      ":\"": 2149,
      "ains": 2150,
      "first": 2151,
      "Ġimage": 2152,
      "lag": 2153,
      "Ð»": 2154,
      "options": 2155,
      "Ã³": 2156,
      "pository": 2157,
      "DB": 2158,
      "ĠCh": 2159,
      "Âł": 2160,
      "Ġonly": 2161,
      "ialog": 2162,
      "æĹ": 2163,
      "ĠCreate": 2164,
      "89": 2165,
      "IP": 2166,
      "ding": 2167,
      "Check": 2168,
      "Ġsp": 2169,
      "000000": 2170,
      "____": 2171,
      "Ad": 2172,
      "meta": 2173,
      "Ġversion": 2174,
      "component": 2175,
      "46": 2176,
      "Frame": 2177,
      "Ġ{}": 2178,
      "æķ°": 2179,
      "pression": 2180,
      "åŃ": 2181,
      "Ġlong": 2182,
      "sk": 2183,
      "Ġ;": 2184,
      "author": 2185,
      "Ġblock": 2186,
      "active": 2187,
      "Update": 2188,
      "Null": 2189,
      "light": 2190,
      "run": 2191,
      "Default": 2192,
      "token": 2193,
      "Command": 2194,
      "Ġrange": 2195,
      "ÃŃ": 2196,
      "quot": 2197,
      "Hel": 2198,
      "æĺ¯": 2199,
      "Ġmy": 2200,
      "čĊĉĉĉ": 2201,
      "gre": 2202,
      "BU": 2203,
      "thon": 2204,
      "ĠclassName": 2205,
      "Ġaction": 2206,
      "Column": 2207,
      "orre": 2208,
      "Start": 2209,
      "Ġdis": 2210,
      "Ġvalid": 2211,
      "'),": 2212,
      "\",\"": 2213,
      "ared": 2214,
      "Format": 2215,
      "Ġgener": 2216,
      "cd": 2217,
      "Ġoper": 2218,
      "Ċĉĉĉĉĉĉĉ": 2219,
      "MO": 2220,
      "ĠSer": 2221,
      "è¡": 2222,
      "det": 2223,
      "Collection": 2224,
      "board": 2225,
      "Ġfirst": 2226,
      "Url": 2227,
      "Block": 2228,
      "INFO": 2229,
      "vo": 2230,
      "service": 2231,
      "wo": 2232,
      "iled": 2233,
      "ities": 2234,
      "():": 2235,
      "Http": 2236,
      "pg": 2237,
      "ĠTest": 2238,
      "Ġecho": 2239,
      "menu": 2240,
      "Ġselect": 2241,
      "column": 2242,
      "ĠCont": 2243,
      ".$": 2244,
      "86": 2245,
      "(_": 2246,
      "Ġoptions": 2247,
      "izer": 2248,
      "ĠObject": 2249,
      "ERROR": 2250,
      "ould": 2251,
      "bin": 2252,
      "OP": 2253,
      "ool": 2254,
      "ower": 2255,
      "Ġrequired": 2256,
      "Ġ\"\\": 2257,
      "man": 2258,
      "Ġclient": 2259,
      "position": 2260,
      "TYPE": 2261,
      "adata": 2262,
      "Ġwas": 2263,
      "Ġbtn": 2264,
      "ped": 2265,
      "Mode": 2266,
      "Ġcal": 2267,
      "åº": 2268,
      "Style": 2269,
      "oper": 2270,
      "nect": 2271,
      "description": 2272,
      "CL": 2273,
      "child": 2274,
      "ux": 2275,
      "click": 2276,
      "msg": 2277,
      "irtual": 2278,
      "Factory": 2279,
      "uid": 2280,
      "edit": 2281,
      "Ġchange": 2282,
      "Ġdistrib": 2283,
      "dev": 2284,
      "SI": 2285,
      "entity": 2286,
      "hed": 2287,
      "pend": 2288,
      "parse": 2289,
      "Ġvalues": 2290,
      "anguage": 2291,
      "loy": 2292,
      "xf": 2293,
      "leg": 2294,
      "Ġmod": 2295,
      "imple": 2296,
      "store": 2297,
      "47": 2298,
      "cs": 2299,
      "....": 2300,
      "Ä±": 2301,
      "icrosoft": 2302,
      "ymb": 2303,
      "Ġoff": 2304,
      "Ġcall": 2305,
      "Read": 2306,
      "refix": 2307,
      "product": 2308,
      "ily": 2309,
      "ln": 2310,
      "And": 2311,
      "Det": 2312,
      "VER": 2313,
      "()->": 2314,
      "čĊčĊĠĠĠ": 2315,
      "element": 2316,
      "annot": 2317,
      "display": 2318,
      "ift": 2319,
      "Ġ12": 2320,
      "uch": 2321,
      "stant": 2322,
      "ymbol": 2323,
      "loud": 2324,
      "refer": 2325,
      "Sp": 2326,
      "Valid": 2327,
      "parent": 2328,
      "Ġalign": 2329,
      "Layout": 2330,
      "omain": 2331,
      "Row": 2332,
      "host": 2333,
      "Listener": 2334,
      "unit": 2335,
      "Ġargs": 2336,
      "OL": 2337,
      "erson": 2338,
      "Filter": 2339,
      "pc": 2340,
      "ĠOF": 2341,
      "UI": 2342,
      "ivity": 2343,
      "SC": 2344,
      "\\\\": 2345,
      "lags": 2346,
      "cast": 2347,
      "å°": 2348,
      "ĠComp": 2349,
      "resh": 2350,
      "layout": 2351,
      "mut": 2352,
      "åĽ": 2353,
      "aa": 2354,
      "################": 2355,
      "ilename": 2356,
      "attr": 2357,
      "ume": 2358,
      "rapper": 2359,
      "cf": 2360,
      "Ġconsole": 2361,
      "change": 2362,
      "cal": 2363,
      "admin": 2364,
      "Ġdate": 2365,
      "ius": 2366,
      "IO": 2367,
      "unk": 2368,
      "ĊĠĠĠĠĠĠĠĠĠĠĠĠĠĠĠĠĠĠĠĠĠ": 2369,
      "ĠAn": 2370,
      "å¼": 2371,
      "apache": 2372,
      "Ġos": 2373,
      "ble": 2374,
      "Task": 2375,
      "VE": 2376,
      "Types": 2377,
      "End": 2378,
      ";\">": 2379,
      "Ġcatch": 2380,
      "Length": 2381,
      "ĠClass": 2382,
      "Link": 2383,
      "common": 2384,
      "gress": 2385,
      "Ġmake": 2386,
      "Ġcommand": 2387,
      "lear": 2388,
      ")(": 2389,
      "oot": 2390,
      "ITE": 2391,
      "bool": 2392,
      "~~": 2393,
      "Mem": 2394,
      "67": 2395,
      "54": 2396,
      "remove": 2397,
      "expect": 2398,
      "ensor": 2399,
      "xy": 2400,
      "SP": 2401,
      "Ob": 2402,
      "Tag": 2403,
      "olic": 2404,
      "fter": 2405,
      "ĊĊĉĉ": 2406,
      "ĠFile": 2407,
      "gener": 2408,
      "éĢ": 2409,
      "ef": 2410,
      "ĠĠĠĠĠĠĠĠĠĠ": 2411,
      "Met": 2412,
      "åį": 2413,
      "xFF": 2414,
      "Server": 2415,
      "Ċĉĉĉĉĉĉĉĉĉĉ": 2416,
      "Version": 2417,
      "Ġwhile": 2418,
      "instance": 2419,
      "čĊĠĠĠĠĠĠĠĠĠĠĠĠĠĠĠĠĠĠĠ": 2420,
      "60": 2421,
      "Module": 2422,
      "gen": 2423,
      "57": 2424,
      "book": 2425,
      "mail": 2426,
      "Ġcopy": 2427,
      "ctx": 2428,
      "Control": 2429,
      ")]": 2430,
      "Mod": 2431,
      "cp": 2432,
      "close": 2433,
      "lit": 2434,
      "req": 2435,
      "ãģ®": 2436,
      "Ġbut": 2437,
      "URL": 2438,
      "Ġformat": 2439,
      "rem": 2440,
      "project": 2441,
      "utils": 2442,
      "NO": 2443,
      "mer": 2444,
      "ade": 2445,
      "weight": 2446,
      "Ġmore": 2447,
      "Ġfe": 2448,
      "cket": 2449,
      "Ġprotected": 2450,
      "Ġcount": 2451,
      "tab": 2452,
      "Address": 2453,
      "ays": 2454,
      "ãĢģ": 2455,
      "Ġ],": 2456,
      "AM": 2457,
      "87": 2458,
      "QL": 2459,
      "Attribute": 2460,
      "42": 2461,
      "iss": 2462,
      "ns": 2463,
      "ultip": 2464,
      "Ġfollow": 2465,
      "tributes": 2466,
      ")</": 2467,
      "Rout": 2468,
      "ĠCON": 2469,
      "delete": 2470,
      "kit": 2471,
      "ists": 2472,
      "Ġstatus": 2473,
      "Ġ>=": 2474,
      "Equals": 2475,
      "Ġgo": 2476,
      "Ġimplement": 2477,
      "Ġqu": 2478,
      "HO": 2479,
      "background": 2480,
      "cent": 2481,
      "160": 2482,
      "sd": 2483,
      "Ã§": 2484,
      "ĊĠĠĠĠĠĠĠĠĊĠĠĠĠĠĠĠ": 2485,
      "ĠĠĠĠĠĠĠĠĠĠĠĠ": 2486,
      "Ġover": 2487,
      "Width": 2488,
      "ĠAdd": 2489,
      "Ġcenter": 2490,
      "ump": 2491,
      "address": 2492,
      "join": 2493,
      "UP": 2494,
      "æī": 2495,
      "process": 2496,
      "Ġnext": 2497,
      "Ġlocal": 2498,
      "spec": 2499,
      "Function": 2500,
      "np": 2501,
      "Ġfunc": 2502,
      "cb": 2503,
      "=\"/": 2504,
      "iven": 2505,
      "Ġmust": 2506,
      "ions": 2507,
      "stream": 2508,
      "build": 2509,
      "Ġprocess": 2510,
      "untime": 2511,
      "buf": 2512,
      "udio": 2513,
      "Ġasync": 2514,
      "Ġquery": 2515,
      "Ġalt": 2516,
      "ĠMe": 2517,
      "ched": 2518,
      "offset": 2519,
      "pop": 2520,
      "OF": 2521,
      "less": 2522,
      "dt": 2523,
      "TP": 2524,
      "ä¹": 2525,
      "root": 2526,
      "cr": 2527,
      "Ã¤": 2528,
      "čĊĠĠĠĠĠ": 2529,
      "ä¸ª": 2530,
      "aterial": 2531,
      "Ð°Ð": 2532,
      "Ġinitial": 2533,
      "Click": 2534,
      "Ġsolid": 2535,
      "etch": 2536,
      "ixed": 2537,
      "ĠArray": 2538,
      "amily": 2539,
      "'))": 2540,
      "etwork": 2541,
      "NAME": 2542,
      "Ġproject": 2543,
      "attern": 2544,
      "chema": 2545,
      "styles": 2546,
      "Ġ?>": 2547,
      "Ġneed": 2548,
      "ãĥ¼": 2549,
      "auth": 2550,
      "rows": 2551,
      "84": 2552,
      "Provider": 2553,
      "ls": 2554,
      "orld": 2555,
      "ier": 2556,
      "Ġopen": 2557,
      "Oper": 2558,
      "oto": 2559,
      "ëĭ": 2560,
      "================================": 2561,
      "Ġjson": 2562,
      "ORT": 2563,
      "Ġcolumn": 2564,
      "Ġnone": 2565,
      "ĠRes": 2566,
      "Ġq": 2567,
      "Ġhttps": 2568,
      "Ġobj": 2569,
      "entry": 2570,
      ",\"": 2571,
      "tool": 2572,
      "Header": 2573,
      "Ġsome": 2574,
      "Ġ14": 2575,
      "cription": 2576,
      "only": 2577,
      "Ġque": 2578,
      "byte": 2579,
      "85": 2580,
      "ĠCopyright": 2581,
      "vector": 2582,
      "UM": 2583,
      "iff": 2584,
      "call": 2585,
      "None": 2586,
      "čĊčĊ": 2587,
      "Ñĥ": 2588,
      "Menu": 2589,
      "lg": 2590,
      "double": 2591,
      "API": 2592,
      "ĊĊĊ": 2593,
      "Ġlast": 2594,
      "now": 2595,
      "jpg": 2596,
      "(){": 2597,
      "train": 2598,
      "property": 2599,
      "Write": 2600,
      "dict": 2601,
      "Ġmem": 2602,
      "Back": 2603,
      "Ġthrows": 2604,
      "Num": 2605,
      "Ġ...": 2606,
      "enc": 2607,
      "Json": 2608,
      "Position": 2609,
      "This": 2610,
      "Ġcur": 2611,
      "Vis": 2612,
      "opt": 2613,
      "items": 2614,
      "pack": 2615,
      "structor": 2616,
      "ian": 2617,
      "Char": 2618,
      "Ġinto": 2619,
      "Ġserver": 2620,
      "dition": 2621,
      "Ã¼": 2622,
      "Ġsuper": 2623,
      "resource": 2624,
      "lack": 2625,
      "window": 2626,
      "ĠLog": 2627,
      "Ġass": 2628,
      "CC": 2629,
      "IM": 2630,
      "sor": 2631,
      "level": 2632,
      "iron": 2633,
      "AA": 2634,
      "velo": 2635,
      "zure": 2636,
      "aj": 2637,
      "WR": 2638,
      "ique": 2639,
      "ten": 2640,
      "Case": 2641,
      "Ġwhere": 2642,
      "Output": 2643,
      "cat": 2644,
      "Ġcomponent": 2645,
      "Pre": 2646,
      "NE": 2647,
      "ward": 2648,
      "props": 2649,
      "send": 2650,
      "document": 2651,
      ">,": 2652,
      "Ġload": 2653,
      "bind": 2654,
      "auto": 2655,
      "Ġfind": 2656,
      "Arg": 2657,
      "ĠID": 2658,
      "unter": 2659,
      "Order": 2660,
      "Ġgroup": 2661,
      "ouse": 2662,
      "Child": 2663,
      "KE": 2664,
      "ĠUser": 2665,
      "PRO": 2666,
      "thing": 2667,
      "side": 2668,
      "aded": 2669,
      "VAL": 2670,
      "ecute": 2671,
      "ĠCol": 2672,
      "session": 2673,
      "where": 2674,
      "ict": 2675,
      "password": 2676,
      "google": 2677,
      "ane": 2678,
      "margin": 2679,
      "`,": 2680,
      "RAN": 2681,
      "Ġshow": 2682,
      "dec": 2683,
      "system": 2684,
      "ABLE": 2685,
      "ĠPar": 2686,
      "72": 2687,
      "ĠReturn": 2688,
      "Utils": 2689,
      "Ġpy": 2690,
      "Ġmatch": 2691,
      "reference": 2692,
      "bit": 2693,
      "pter": 2694,
      "full": 2695,
      "ĠInitial": 2696,
      "ron": 2697,
      "Ġ'./": 2698,
      "quence": 2699,
      "Ġsw": 2700,
      "Web": 2701,
      "ĠZ": 2702,
      ">&": 2703,
      "xb": 2704,
      "Ġra": 2705,
      "åľ¨": 2706,
      "olicy": 2707,
      "Sto": 2708,
      "types": 2709,
      "save": 2710,
      "Ġorder": 2711,
      "70": 2712,
      "ĠType": 2713,
      "ĠDate": 2714,
      "irection": 2715,
      "holder": 2716,
      "æł": 2717,
      "Part": 2718,
      "Ġinterface": 2719,
      "react": 2720,
      "buffer": 2721,
      "ĠEn": 2722,
      "Container": 2723,
      "Max": 2724,
      "Ġav": 2725,
      "ious": 2726,
      "Ġ<=": 2727,
      "Ġ${": 2728,
      "STR": 2729,
      "Api": 2730,
      "čĊĠĠĠĠ": 2731,
      "mat": 2732,
      "ffect": 2733,
      "95": 2734,
      "nder": 2735,
      "ĊĠĠĠĠĠĠĠĠĠĠ": 2736,
      "Ġmain": 2737,
      "ste": 2738,
      "åĩ": 2739,
      "å¾": 2740,
      "ret": 2741,
      "ĠAPI": 2742,
      "Ġtag": 2743,
      "å¯": 2744,
      "Ġref": 2745,
      "Ġê": 2746,
      "ernal": 2747,
      "ado": 2748,
      "handle": 2749,
      "ULT": 2750,
      "device": 2751,
      "Interface": 2752,
      "Ġpost": 2753,
      "Ġdistributed": 2754,
      "Vector": 2755,
      "Ġresource": 2756,
      "Run": 2757,
      "xml": 2758,
      "les": 2759,
      "Auth": 2760,
      "Ġmodule": 2761,
      "tot": 2762,
      "mm": 2763,
      "Ġop": 2764,
      "ĊĠĠĠĠĠĠĠĠĠĠĠĠĠĠ": 2765,
      "Ġret": 2766,
      "Ġ200": 2767,
      "82": 2768,
      "gl": 2769,
      "rypt": 2770,
      "lip": 2771,
      "txt": 2772,
      "Enum": 2773,
      "\"/>": 2774,
      ">();": 2775,
      "xx": 2776,
      "90": 2777,
      "sa": 2778,
      "values": 2779,
      "Ġfilter": 2780,
      "ZE": 2781,
      "Ġfiles": 2782,
      "anel": 2783,
      "\"));": 2784,
      "ĊĠĠĠĠĠĠĠĠĠĠĠĠĠĠĠĠĠĠĠĠĠĠĠĠĠĠĠĠĠĠĠĠĠĠĠĠĠĠĠĠĠĠĠ": 2785,
      "<!--": 2786,
      "task": 2787,
      "43": 2788,
      "met": 2789,
      "break": 2790,
      "custom": 2791,
      "ĠYou": 2792,
      "åĨ": 2793,
      "total": 2794,
      "drop": 2795,
      "ansp": 2796,
      "Ġbuild": 2797,
      ",-": 2798,
      "printf": 2799,
      "Empty": 2800,
      "imer": 2801,
      "Ġ{{": 2802,
      "ä¸į": 2803,
      "Ġhandle": 2804,
      "stract": 2805,
      "inline": 2806,
      "Wh": 2807,
      "ĠIS": 2808,
      "æľī": 2809,
      "CTION": 2810,
      "empty": 2811,
      "entifier": 2812,
      "False": 2813,
      "----------------------------------------------------------------": 2814,
      "Ġinclude": 2815,
      "Return": 2816,
      "command": 2817,
      "Ġ%}": 2818,
      "Ġplace": 2819,
      "ency": 2820,
      "arn": 2821,
      "ä¸Ń": 2822,
      "fs": 2823,
      "success": 2824,
      "Level": 2825,
      "Entry": 2826,
      "Ġprovide": 2827,
      "?:": 2828,
      "acity": 2829,
      "split": 2830,
      "Ġeach": 2831,
      "Ñı": 2832,
      "Us": 2833,
      "atures": 2834,
      "jav": 2835,
      "ĊĉĊ": 2836,
      "TD": 2837,
      "Load": 2838,
      "Ġoverride": 2839,
      "96": 2840,
      "xe": 2841,
      "Ġpub": 2842,
      "padding": 2843,
      "Ġjust": 2844,
      "Ġver": 2845,
      "ĠSh": 2846,
      "stri": 2847,
      "lap": 2848,
      "shape": 2849,
      "hash": 2850,
      "ven": 2851,
      "Search": 2852,
      "river": 2853,
      "ĠNot": 2854,
      "ï¼ļ": 2855,
      "foot": 2856,
      "Ã¶": 2857,
      "Min": 2858,
      "Connection": 2859,
      "Ġsupport": 2860,
      "mode": 2861,
      "Do": 2862,
      "media": 2863,
      "Ġrender": 2864,
      "asic": 2865,
      "98": 2866,
      "inate": 2867,
      "ces": 2868,
      "Ġdoes": 2869,
      "modal": 2870,
      ")))": 2871,
      "grid": 2872,
      "('/": 2873,
      "Ðº": 2874,
      "tra": 2875,
      "Ġarg": 2876,
      "ines": 2877,
      "Ġtoken": 2878,
      "lasses": 2879,
      "PA": 2880,
      "41": 2881,
      "Option": 2882,
      "Ġgiven": 2883,
      "gn": 2884,
      "ym": 2885,
      "other": 2886,
      "æĿ": 2887,
      "assets": 2888,
      "ALL": 2889,
      "fr": 2890,
      "Ġfound": 2891,
      "SET": 2892,
      "![": 2893,
      "Spec": 2894,
      "application": 2895,
      "scribe": 2896,
      "Configuration": 2897,
      "ential": 2898,
      "Cache": 2899,
      "Height": 2900,
      "home": 2901,
      "Ph": 2902,
      "second": 2903,
      "éĩ": 2904,
      "ĠCom": 2905,
      "=\"{{": 2906,
      "Ptr": 2907,
      "Ġwindow": 2908,
      "edge": 2909,
      "ById": 2910,
      "docs": 2911,
      "Location": 2912,
      "era": 2913,
      "Rem": 2914,
      "Draw": 2915,
      "ĠTO": 2916,
      "transform": 2917,
      "Ab": 2918,
      "AC": 2919,
      "creen": 2920,
      "att": 2921,
      "arning": 2922,
      "\"\"\"": 2923,
      "čĊčĊĠĠĠĠĠĠĠ": 2924,
      "ayload": 2925,
      "present": 2926,
      "acter": 2927,
      "Assert": 2928,
      "exp": 2929,
      "none": 2930,
      "romise": 2931,
      "Fe": 2932,
      "ring": 2933,
      "Ext": 2934,
      "ascript": 2935,
      "Ġparams": 2936,
      "ches": 2937,
      "âĶĢ": 2938,
      "52": 2939,
      "ocus": 2940,
      "ggle": 2941,
      "Ġem": 2942,
      "Ġlimit": 2943,
      "uter": 2944,
      "SH": 2945,
      "]:": 2946,
      "files": 2947,
      "Left": 2948,
      "Ġoption": 2949,
      "\".": 2950,
      "âĢĻ": 2951,
      "Ġ::": 2952,
      "apping": 2953,
      "Ġap": 2954,
      "Ġinformation": 2955,
      "Ġport": 2956,
      "ITY": 2957,
      "pub": 2958,
      "wrap": 2959,
      "ĠDE": 2960,
      "Ġexp": 2961,
      "IF": 2962,
      "Ġfn": 2963,
      "Ġfollowing": 2964,
      "Ġvis": 2965,
      "Ġparent": 2966,
      "graph": 2967,
      "Open": 2968,
      "97": 2969,
      "ä¼": 2970,
      "ĠInt": 2971,
      "Bar": 2972,
      "sql": 2973,
      "inner": 2974,
      "ready": 2975,
      "stamp": 2976,
      "Ġ(:": 2977,
      "xc": 2978,
      "Ġproperty": 2979,
      "ĠTrue": 2980,
      "igger": 2981,
      "TER": 2982,
      "ĠSee": 2983,
      "final": 2984,
      "Params": 2985,
      "nown": 2986,
      "Settings": 2987,
      "plot": 2988,
      "debug": 2989,
      "ĠANY": 2990,
      "Title": 2991,
      "Ġ11": 2992,
      "hidden": 2993,
      "Ġtemp": 2994,
      "cache": 2995,
      "Ñĭ": 2996,
      "Windows": 2997,
      "CP": 2998,
      "very": 2999,
      "uc": 3000,
      "ĠTHE": 3001,
      "family": 3002,
      "ging": 3003,
      "Ġ50": 3004,
      "BA": 3005,
      "ATION": 3006,
      "Session": 3007,
      "Ġservice": 3008,
      "copy": 3009,
      "LIC": 3010,
      "Target": 3011,
      "Ġexpected": 3012,
      "MS": 3013,
      "Ġte": 3014,
      "Hash": 3015,
      "RL": 3016,
      "hel": 3017,
      "match": 3018,
      "mount": 3019,
      "çĽ": 3020,
      "ination": 3021,
      "Param": 3022,
      "Ġargument": 3023,
      "ceiv": 3024,
      "ither": 3025,
      "Ġexcept": 3026,
      "anch": 3027,
      "idx": 3028,
      "uction": 3029,
      "sl": 3030,
      "Tool": 3031,
      "{}": 3032,
      "replace": 3033,
      "Ġallow": 3034,
      "Ġph": 3035,
      "[:": 3036,
      "Pos": 3037,
      "scope": 3038,
      "Ġsoftware": 3039,
      "PRE": 3040,
      "bb": 3041,
      "á»": 3042,
      "cul": 3043,
      "vol": 3044,
      "Record": 3045,
      "Parameter": 3046,
      "svg": 3047,
      "curity": 3048,
      "conf": 3049,
      "BUG": 3050,
      "UB": 3051,
      "Process": 3052,
      "Access": 3053,
      "istory": 3054,
      "umb": 3055,
      "Ġexample": 3056,
      "ART": 3057,
      "returns": 3058,
      "Ġlength": 3059,
      "entic": 3060,
      "long": 3061,
      "Ã£": 3062,
      "Ġ'/": 3063,
      "Ġvariable": 3064,
      "desc": 3065,
      "Que": 3066,
      "ĊĉĠĠĠ": 3067,
      "\":\"": 3068,
      "Ġaddress": 3069,
      "Ġtemplate": 3070,
      "Ġsign": 3071,
      "tocol": 3072,
      "GET": 3073,
      "inue": 3074,
      "utor": 3075,
      "Icon": 3076,
      "'])": 3077,
      "then": 3078,
      "Cell": 3079,
      "LL": 3080,
      "ironment": 3081,
      "lation": 3082,
      "xa": 3083,
      "Current": 3084,
      "ffff": 3085,
      "category": 3086,
      "can": 3087,
      "ĠEX": 3088,
      "scale": 3089,
      "ze": 3090,
      ")),": 3091,
      "92": 3092,
      "Top": 3093,
      "render": 3094,
      "adow": 3095,
      "should": 3096,
      "Ġ''": 3097,
      "53": 3098,
      "off": 3099,
      "important": 3100,
      "83": 3101,
      "Stack": 3102,
      "Ġandroid": 3103,
      "article": 3104,
      "If": 3105,
      "see": 3106,
      "Ġ\"/": 3107,
      "Ġenv": 3108,
      "Ġac": 3109,
      "Ġdet": 3110,
      "pha": 3111,
      "94": 3112,
      "Core": 3113,
      "tmp": 3114,
      "ĠĠĠĠĠĠĠĠĠĠĠĠĠ": 3115,
      "toString": 3116,
      "arr": 3117,
      "Offset": 3118,
      "imation": 3119,
      "Ġ{@": 3120,
      "Ġsk": 3121,
      "Work": 3122,
      "lish": 3123,
      "Range": 3124,
      "Ġlink": 3125,
      "imal": 3126,
      "sort": 3127,
      "her": 3128,
      "footer": 3129,
      "Dis": 3130,
      "cluster": 3131,
      "åĮ": 3132,
      "INE": 3133,
      "'=>": 3134,
      "bed": 3135,
      "WRITE": 3136,
      "site": 3137,
      "('#": 3138,
      "Ġdb": 3139,
      "java": 3140,
      "ĠAssert": 3141,
      "MM": 3142,
      "62": 3143,
      "sample": 3144,
      "Ġreg": 3145,
      "Ġmode": 3146,
      "aders": 3147,
      "reen": 3148,
      "ĠRE": 3149,
      "Ġ*)": 3150,
      "63": 3151,
      "Ġes": 3152,
      "Repository": 3153,
      "undle": 3154,
      "Ġdelete": 3155,
      "Ġwrit": 3156,
      "totype": 3157,
      "xd": 3158,
      "ories": 3159,
      "Ġ30": 3160,
      "Thread": 3161,
      "RA": 3162,
      "Ġter": 3163,
      "iddle": 3164,
      "TA": 3165,
      "(-": 3166,
      "ĠWAR": 3167,
      "iginal": 3168,
      "Async": 3169,
      "ynam": 3170,
      "dic": 3171,
      "Dir": 3172,
      "missions": 3173,
      "OK": 3174,
      "ĠOn": 3175,
      "Ã£o": 3176,
      "imum": 3177,
      "Ġspecific": 3178,
      "ãģĻ": 3179,
      "ĠBu": 3180,
      "register": 3181,
      "Ġinit": 3182,
      "XX": 3183,
      "ipe": 3184,
      "make": 3185,
      "ĊĊĠĠ": 3186,
      "Store": 3187,
      "Tree": 3188,
      "Ġbuffer": 3189,
      "Body": 3190,
      "Device": 3191,
      "ä¸º": 3192,
      "Ġchild": 3193,
      "olve": 3194,
      "Ġroot": 3195,
      "Unit": 3196,
      "Ġbefore": 3197,
      "rowser": 3198,
      "ĠSo": 3199,
      "lean": 3200,
      "å½": 3201,
      "Ġparse": 3202,
      "Ġax": 3203,
      "Template": 3204,
      "framework": 3205,
      "Ġlanguage": 3206,
      "rt": 3207,
      "æ³": 3208,
      "Cal": 3209,
      "ling": 3210,
      "Ġ[\"": 3211,
      "Ġstore": 3212,
      ":</": 3213,
      "ailable": 3214,
      "ds": 3215,
      "Document": 3216,
      "Render": 3217,
      "Ġ!==": 3218,
      "Ġdel": 3219,
      "Ġword": 3220,
      "ĠName": 3221,
      "Call": 3222,
      "boot": 3223,
      "Ġweb": 3224,
      "Ġbet": 3225,
      "256": 3226,
      "Ġpr": 3227,
      "Ġtask": 3228,
      "Ġthere": 3229,
      "73": 3230,
      "je": 3231,
      "ĠUp": 3232,
      "gest": 3233,
      "ocket": 3234,
      "lied": 3235,
      "cell": 3236,
      "istance": 3237,
      "ru": 3238,
      "serv": 3239,
      "interface": 3240,
      "ä¿": 3241,
      "ĠFor": 3242,
      "solute": 3243,
      "æŀ": 3244,
      "fn": 3245,
      "Right": 3246,
      "Ġrg": 3247,
      "ĠError": 3248,
      "BO": 3249,
      "SD": 3250,
      "Handle": 3251,
      "ERT": 3252,
      "Ġframe": 3253,
      "ween": 3254,
      "81": 3255,
      "bg": 3256,
      "javascript": 3257,
      "ç½": 3258,
      "coder": 3259,
      "xs": 3260,
      "255": 3261,
      "Description": 3262,
      "Ġaccess": 3263,
      "Post": 3264,
      "tree": 3265,
      "area": 3266,
      "expected": 3267,
      "ãĤĴ": 3268,
      "fact": 3269,
      "dr": 3270,
      "__(": 3271,
      "Ġflex": 3272,
      "Ġmsg": 3273,
      "æİ": 3274,
      "ENSE": 3275,
      "ĊĠĠĠĠĠĠĠĠĠĠĠĠĠĠĠĠĠĠĠĠ": 3276,
      "Down": 3277,
      "Ġ),": 3278,
      "Ġsearch": 3279,
      "åı¯": 3280,
      "Ġcorre": 3281,
      "hover": 3282,
      "ä»¥": 3283,
      "Ġopt": 3284,
      "strap": 3285,
      "ince": 3286,
      "_.": 3287,
      "Ġhere": 3288,
      "pth": 3289,
      "è¦": 3290,
      "anage": 3291,
      "ĠHT": 3292,
      "æĢ": 3293,
      "ÐµÐ": 3294,
      "ration": 3295,
      "Ġ++": 3296,
      "OS": 3297,
      "Parser": 3298,
      "Ġwrite": 3299,
      "61": 3300,
      "WA": 3301,
      "pol": 3302,
      "insert": 3303,
      "Ġcallback": 3304,
      "93": 3305,
      "oo": 3306,
      "æį": 3307,
      "ĠĊĠĠĠ": 3308,
      "51": 3309,
      "Integer": 3310,
      "Ġoffset": 3311,
      "toggle": 3312,
      "CA": 3313,
      "ios": 3314,
      "Helper": 3315,
      "tw": 3316,
      "čĊĉĉĉĉ": 3317,
      "ĠWARRAN": 3318,
      "ao": 3319,
      "ispatch": 3320,
      "Ġpri": 3321,
      "ision": 3322,
      "Ġdescription": 3323,
      "stack": 3324,
      "ĠException": 3325,
      "æĶ": 3326,
      ")).": 3327,
      "RT": 3328,
      "andard": 3329,
      "comment": 3330,
      "lice": 3331,
      "ixel": 3332,
      "Ġinfo": 3333,
      "ulti": 3334,
      "uff": 3335,
      "stylesheet": 3336,
      "Script": 3337,
      ")->": 3338,
      "login": 3339,
      "dest": 3340,
      "ĥ½": 3341,
      "ÑĮ": 3342,
      "------------": 3343,
      "è§": 3344,
      "Reg": 3345,
      "++;": 3346,
      "(*": 3347,
      "components": 3348,
      "ĠFalse": 3349,
      "Ġ(\"": 3350,
      "radius": 3351,
      "range": 3352,
      "Ġet": 3353,
      "vious": 3354,
      "struction": 3355,
      "Ġnon": 3356,
      "JSON": 3357,
      "Ġsuccess": 3358,
      "clear": 3359,
      "ules": 3360,
      "luster": 3361,
      "Ġafter": 3362,
      "Local": 3363,
      "sert": 3364,
      "Ġheader": 3365,
      "ORM": 3366,
      "igin": 3367,
      "vas": 3368,
      "Ġbutton": 3369,
      "æĹ¶": 3370,
      "fd": 3371,
      "Ġ\"\"": 3372,
      "Reader": 3373,
      "Ġ13": 3374,
      ".\"": 3375,
      "plugin": 3376,
      "channel": 3377,
      "Graph": 3378,
      "pa": 3379,
      "operator": 3380,
      "lan": 3381,
      "Ġpos": 3382,
      "éĹ": 3383,
      "ĠBo": 3384,
      "report": 3385,
      "\">&": 3386,
      "Args": 3387,
      "ful": 3388,
      "Float": 3389,
      "ted": 3390,
      "We": 3391,
      "IB": 3392,
      "ĠReact": 3393,
      "ias": 3394,
      "verse": 3395,
      "rate": 3396,
      "Next": 3397,
      "hs": 3398,
      "à¯": 3399,
      "Ġsame": 3400,
      "region": 3401,
      "ĠAll": 3402,
      "inary": 3403,
      "Ġbyte": 3404,
      "Serial": 3405,
      "Ġspecified": 3406,
      "Ġmat": 3407,
      "gu": 3408,
      "Ġsystem": 3409,
      "ents": 3410,
      "ploy": 3411,
      "Constant": 3412,
      "ĠIm": 3413,
      "`.": 3414,
      "itu": 3415,
      "ATA": 3416,
      "Edit": 3417,
      "å¹": 3418,
      "leted": 3419,
      "wn": 3420,
      "game": 3421,
      "SIZE": 3422,
      "Values": 3423,
      "'.": 3424,
      "addr": 3425,
      "Port": 3426,
      "panel": 3427,
      "ctionary": 3428,
      "na": 3429,
      "primary": 3430,
      "ancel": 3431,
      "Ġfore": 3432,
      "Are": 3433,
      "MAX": 3434,
      "Ġbody": 3435,
      "ii": 3436,
      "-->": 3437,
      "Ġsee": 3438,
      "Storage": 3439,
      "Ġexec": 3440,
      "Ġits": 3441,
      "Ġnow": 3442,
      "FE": 3443,
      "è¡Į": 3444,
      "finition": 3445,
      "Ġtotal": 3446,
      "limit": 3447,
      "ORD": 3448,
      "Items": 3449,
      "tip": 3450,
      "IND": 3451,
      "___": 3452,
      "Callback": 3453,
      "amera": 3454,
      "coding": 3455,
      "webkit": 3456,
      "ĊĠĠĠĠĠĠĠĠĠĠĠĠĠĠĠĠĠĠĠĠĠĠĠĠĠ": 3457,
      "KEY": 3458,
      "Ġsecond": 3459,
      "ä»¶": 3460,
      "before": 3461,
      "Ġred": 3462,
      "keys": 3463,
      "Ġicon": 3464,
      "vm": 3465,
      "Ġ{\"": 3466,
      "Sign": 3467,
      ",'": 3468,
      "ada": 3469,
      "required": 3470,
      "(!": 3471,
      "settings": 3472,
      "Mon": 3473,
      "ason": 3474,
      "Application": 3475,
      "ĉĉĉ": 3476,
      "Ġundefined": 3477,
      "ĠAzure": 3478,
      "au": 3479,
      "equals": 3480,
      "Ġsession": 3481,
      "Ġ2019": 3482,
      "angle": 3483,
      "dim": 3484,
      "Argument": 3485,
      "_,": 3486,
      "ĠVersion": 3487,
      "Product": 3488,
      "Ġge": 3489,
      "Obj": 3490,
      "Ġinstall": 3491,
      "Ġlevel": 3492,
      "ideo": 3493,
      "Ġbeen": 3494,
      "Ġjav": 3495,
      "Ġdec": 3496,
      "Ġwant": 3497,
      "ìĹ": 3498,
      "Project": 3499,
      "Account": 3500,
      "master": 3501,
      "aly": 3502,
      "]]": 3503,
      "Reference": 3504,
      "Ġeither": 3505,
      "å¸": 3506,
      "Route": 3507,
      "Ġwithout": 3508,
      "Ġalso": 3509,
      "Ġ\",": 3510,
      "Ġpo": 3511,
      "ĠJSON": 3512,
      "ĊĊĊĊ": 3513,
      "Tab": 3514,
      "ĠÐ¿": 3515,
      "ĠInitialized": 3516,
      "ĊĊĠĠĠĠĠĠĠĠĠĠĠĠĠĠĠĠĠĠĠ": 3517,
      "gment": 3518,
      "iant": 3519,
      "models": 3520,
      "æĸĩ": 3521,
      "{\"": 3522,
      "Grid": 3523,
      "profile": 3524,
      "Props": 3525,
      "å®ļ": 3526,
      "ĠAl": 3527,
      "sche": 3528,
      "Properties": 3529,
      "Ġhtml": 3530,
      "ĠReturns": 3531,
      "step": 3532,
      "ĠĠĠĠĠĠĠĠĠĠĠĠĠĠ": 3533,
      "Ġí": 3534,
      "cmd": 3535,
      "DEBUG": 3536,
      "car": 3537,
      "account": 3538,
      "ĠMap": 3539,
      "Ġcustom": 3540,
      "Custom": 3541,
      "POST": 3542,
      "Ġ\"\",": 3543,
      "day": 3544,
      "ah": 3545,
      "ĠWe": 3546,
      "oci": 3547,
      "ĠIt": 3548,
      "del": 3549,
      "Ġ18": 3550,
      "Ġexist": 3551,
      "ids": 3552,
      "EQ": 3553,
      "Ġ~": 3554,
      "Delete": 3555,
      "brary": 3556,
      "git": 3557,
      "'];": 3558,
      "Ġunsigned": 3559,
      "å·": 3560,
      "ĠGener": 3561,
      "oom": 3562,
      "pk": 3563,
      "fc": 3564,
      "ged": 3565,
      "Ġbox": 3566,
      "Player": 3567,
      "END": 3568,
      "Ġpass": 3569,
      "als": 3570,
      "prototype": 3571,
      "âĶĢâĶĢ": 3572,
      "mock": 3573,
      "Ġty": 3574,
      "ĠWIT": 3575,
      "Ġnamespace": 3576,
      "Ġvirtual": 3577,
      "Ġtransform": 3578,
      "Ġ19": 3579,
      "Ġag": 3580,
      "ĠAp": 3581,
      "Card": 3582,
      "ished": 3583,
      "Ġ'@": 3584,
      "(\"#": 3585,
      "NS": 3586,
      "Ġthan": 3587,
      "keyword": 3588,
      "irm": 3589,
      "way": 3590,
      "small": 3591,
      "Game": 3592,
      "ibility": 3593,
      "draw": 3594,
      "ëĭ¤": 3595,
      "AND": 3596,
      "71": 3597,
      "Ġlike": 3598,
      "æŃ": 3599,
      "Ġaria": 3600,
      "\"],": 3601,
      "spring": 3602,
      "Ġreturns": 3603,
      "uple": 3604,
      "ĠConfig": 3605,
      "dl": 3606,
      "impl": 3607,
      "ÐµÐ½": 3608,
      "=\"_": 3609,
      "*)": 3610,
      "Ġ'\\": 3611,
      "Channel": 3612,
      "Ġapplication": 3613,
      "LOG": 3614,
      "REWRITE": 3615,
      "ãĥ³": 3616,
      "flex": 3617,
      "PR": 3618,
      "peed": 3619,
      "////////////////////////////////": 3620,
      "\"},": 3621,
      "Logger": 3622,
      "PC": 3623,
      "Dialog": 3624,
      "Ġvert": 3625,
      "tric": 3626,
      "ĊĠĠĠĠĠĠĠĠĠĠĠĠĠĠĠĠĠĠĠĠĠĠĠĠĠĠĠĠĠĠĠĠĠĠĠĠĠĠĠĠĠĠĠĠĠĠĠ": 3627,
      "Panel": 3628,
      "Ġdevice": 3629,
      "widget": 3630,
      "Impl": 3631,
      "rep": 3632,
      "iler": 3633,
      "hell": 3634,
      "username": 3635,
      "')->": 3636,
      "selected": 3637,
      "ĠTo": 3638,
      "random": 3639,
      "access": 3640,
      "ĠÃ": 3641,
      "Ġdest": 3642,
      "utf": 3643,
      "è¦ģ": 3644,
      "ugh": 3645,
      "ensions": 3646,
      "shot": 3647,
      "rs": 3648,
      "Ġparameter": 3649,
      "čĊĠĠĠĠĠĠĠĠĠĠĠĠĠĠĠĠĠĠĠĠĠĠĠ": 3650,
      "iod": 3651,
      "Ġremove": 3652,
      "Op": 3653,
      "ĠValue": 3654,
      "Ġsend": 3655,
      "Match": 3656,
      "utom": 3657,
      "ĠNew": 3658,
      "Ġdown": 3659,
      "Ġcell": 3660,
      "èĢ": 3661,
      "{%": 3662,
      "ĠDes": 3663,
      "println": 3664,
      "Ġrole": 3665,
      "Ġ2018": 3666,
      "uk": 3667,
      "Definition": 3668,
      "URE": 3669,
      "inc": 3670,
      "ario": 3671,
      "ç§": 3672,
      "ĠâĢ": 3673,
      "roy": 3674,
      "Ġentry": 3675,
      "tain": 3676,
      "hr": 3677,
      "EL": 3678,
      "Ġsizeof": 3679,
      "<<": 3680,
      "Ġinternal": 3681,
      "ayment": 3682,
      "Ġdif": 3683,
      "orch": 3684,
      "Ġempty": 3685,
      "ĊĊĊĠĠĠ": 3686,
      "Each": 3687,
      "ous": 3688,
      "Ġ32": 3689,
      "Ġresults": 3690,
      "ãĤĭ": 3691,
      "connect": 3692,
      "=$": 3693,
      "unsigned": 3694,
      "ĠForm": 3695,
      "MB": 3696,
      "ATH": 3697,
      "Iter": 3698,
      "ross": 3699,
      "AGE": 3700,
      "Print": 3701,
      "ircle": 3702,
      "}/": 3703,
      "Ġ64": 3704,
      "ìĿ´": 3705,
      "Ġparameters": 3706,
      "queue": 3707,
      "filename": 3708,
      "Ġjavax": 3709,
      "äºĨ": 3710,
      "ynamic": 3711,
      "actions": 3712,
      "Ġcontain": 3713,
      "TIES": 3714,
      "ung": 3715,
      "Ġabout": 3716,
      "mask": 3717,
      "Ġcreated": 3718,
      "ragment": 3719,
      "views": 3720,
      "DS": 3721,
      "igation": 3722,
      "Ġcache": 3723,
      "Ġtmp": 3724,
      "Ġlicense": 3725,
      "bers": 3726,
      "ĠText": 3727,
      "Ġvalign": 3728,
      "vt": 3729,
      "Ġrecord": 3730,
      "Ġcontrol": 3731,
      "cloud": 3732,
      "ynt": 3733,
      "itter": 3734,
      "ĠCheck": 3735,
      "Expression": 3736,
      "job": 3737,
      "åĢ": 3738,
      "Pr": 3739,
      "FILE": 3740,
      "ëĬ": 3741,
      "ĠTime": 3742,
      "Ø§": 3743,
      "Ste": 3744,
      "DC": 3745,
      "valu": 3746,
      "ãģ«": 3747,
      "Mock": 3748,
      "Ġswitch": 3749,
      "Ġconnection": 3750,
      "æĮ": 3751,
      "nap": 3752,
      "ae": 3753,
      "ãģĹ": 3754,
      "begin": 3755,
      "Vert": 3756,
      "Last": 3757,
      "é¡": 3758,
      "ÑģÑĤ": 3759,
      "ĠDo": 3760,
      "record": 3761,
      "ernel": 3762,
      "pename": 3763,
      "exports": 3764,
      "First": 3765,
      "users": 3766,
      "ram": 3767,
      "ROM": 3768,
      "prop": 3769,
      "Ġnav": 3770,
      "dapter": 3771,
      "Ð²": 3772,
      "Init": 3773,
      "}\"": 3774,
      "Di": 3775,
      "ultiple": 3776,
      "Ġstream": 3777,
      "Ġdefined": 3778,
      "License": 3779,
      "ĠMath": 3780,
      "[$": 3781,
      "éĻ": 3782,
      "One": 3783,
      "unds": 3784,
      "Found": 3785,
      "Ġenum": 3786,
      ".__": 3787,
      "Ġimg": 3788,
      "UD": 3789,
      "zz": 3790,
      "Ġio": 3791,
      "ube": 3792,
      "FAULT": 3793,
      "initial": 3794,
      "Rect": 3795,
      "manager": 3796,
      "peat": 3797,
      "si": 3798,
      "Active": 3799,
      "global": 3800,
      "Ġmet": 3801,
      "ĠWh": 3802,
      "Ġ(*": 3803,
      "}>": 3804,
      "ĠEvent": 3805,
      "ĠĊĠĠĠĠĠĠĠ": 3806,
      "Ġpackage": 3807,
      "rg": 3808,
      "Schema": 3809,
      "help": 3810,
      "Exec": 3811,
      "lide": 3812,
      "ators": 3813,
      "CS": 3814,
      "Ġour": 3815,
      "untry": 3816,
      "alloc": 3817,
      "Ġhost": 3818,
      "support": 3819,
      "atal": 3820,
      "Ġ17": 3821,
      "rough": 3822,
      "&&": 3823,
      "Ġtab": 3824,
      "Te": 3825,
      "Ġsum": 3826,
      "submit": 3827,
      "Red": 3828,
      "points": 3829,
      "=(": 3830,
      "bs": 3831,
      "ITION": 3832,
      "Bytes": 3833,
      "Ġ2020": 3834,
      "Ġnet": 3835,
      "echo": 3836,
      "Exp": 3837,
      "vec": 3838,
      "PORT": 3839,
      "Ġtwo": 3840,
      "urren": 3841,
      "Ġbytes": 3842,
      "NULL": 3843,
      "UID": 3844,
      "iteral": 3845,
      "æĪĲ": 3846,
      "DD": 3847,
      "Ġhelp": 3848,
      "Ġaccount": 3849,
      "ĠPy": 3850,
      "Ġ24": 3851,
      "latform": 3852,
      "Eng": 3853,
      "Ġpe": 3854,
      "Ġctx": 3855,
      "ĠOption": 3856,
      "çī": 3857,
      "Med": 3858,
      "cap": 3859,
      "ĠĊĠĠĠĠĠĠĠĠĠĠĠ": 3860,
      "ĠWARRANTIES": 3861,
      "uri": 3862,
      "Ġest": 3863,
      "ĠVector": 3864,
      "Activity": 3865,
      "gistry": 3866,
      "bot": 3867,
      "128": 3868,
      "player": 3869,
      "mun": 3870,
      "('.": 3871,
      "expr": 3872,
      "Ġder": 3873,
      "blank": 3874,
      "Password": 3875,
      "Ġprogram": 3876,
      "used": 3877,
      "ka": 3878,
      "Ġold": 3879,
      "lem": 3880,
      "Names": 3881,
      "ĊĉĉĊĉ": 3882,
      "commit": 3883,
      "normal": 3884,
      "cret": 3885,
      "Parameters": 3886,
      "itional": 3887,
      "getElement": 3888,
      "Ġhow": 3889,
      "Ċĉĉĉĉĉĉĉĉĉ": 3890,
      "ĠUI": 3891,
      "Ġdatabase": 3892,
      "ced": 3893,
      "Ġpassword": 3894,
      "ĠLe": 3895,
      "()).": 3896,
      "member": 3897,
      "Ġcondition": 3898,
      "DF": 3899,
      "Ġregister": 3900,
      "engine": 3901,
      "Ġ'<": 3902,
      "dc": 3903,
      "Require": 3904,
      "Role": 3905,
      "Ġca": 3906,
      "stop": 3907,
      "Ġiter": 3908,
      "ignore": 3909,
      "ilt": 3910,
      "91": 3911,
      "Ġsort": 3912,
      "PT": 3913,
      "(()": 3914,
      "Ġmark": 3915,
      "ĠSoftware": 3916,
      "(`": 3917,
      "ĠWeb": 3918,
      "TEST": 3919,
      "Ġscript": 3920,
      "Ġ<?": 3921,
      "parator": 3922,
      "Database": 3923,
      "anner": 3924,
      "icker": 3925,
      "ĠLo": 3926,
      "fill": 3927,
      "Ġ255": 3928,
      "Ġavailable": 3929,
      "Ġpara": 3930,
      "Ġapplic": 3931,
      ")));": 3932,
      "Ġreq": 3933,
      "Pri": 3934,
      "ues": 3935,
      "ĠGL": 3936,
      "SA": 3937,
      "Dec": 3938,
      "IR": 3939,
      "come": 3940,
      ";}": 3941,
      "=\"\"": 3942,
      "Ġobtain": 3943,
      "Ġplaceholder": 3944,
      "thread": 3945,
      "errors": 3946,
      "________": 3947,
      "Def": 3948,
      "acket": 3949,
      "ä¸ĭ": 3950,
      "Ġdirectory": 3951,
      "å¯¹": 3952,
      "Matrix": 3953,
      "eq": 3954,
      "Display": 3955,
      "Writer": 3956,
      "shared": 3957,
      "ĠApache": 3958,
      "Ġsm": 3959,
      "ä¾": 3960,
      "cover": 3961,
      "ĠUpdate": 3962,
      "è¾": 3963,
      "raft": 3964,
      "Font": 3965,
      "Variable": 3966,
      "ĠLO": 3967,
      "ä½¿": 3968,
      "editor": 3969,
      "navbar": 3970,
      "Ġmon": 3971,
      "Ġraise": 3972,
      "Ġitems": 3973,
      "ness": 3974,
      "aster": 3975,
      "cer": 3976,
      "Ã³n": 3977,
      "price": 3978,
      "Operation": 3979,
      "Close": 3980,
      "conn": 3981,
      "Engine": 3982,
      "Ġconfiguration": 3983,
      "velop": 3984,
      "Sw": 3985,
      "bytes": 3986,
      "play": 3987,
      "Ġforeach": 3988,
      "lash": 3989,
      "Ġcontainer": 3990,
      "åĪ°": 3991,
      "Ġfull": 3992,
      "æį®": 3993,
      "Category": 3994,
      "ĠAs": 3995,
      "Ġthey": 3996,
      "¦Ĥ": 3997,
      "Ġcons": 3998,
      "serial": 3999,
      "Changed": 4000,
      "ired": 4001,
      "junit": 4002,
      "=\"../": 4003,
      "Ġthem": 4004,
      "\"`": 4005,
      "ersist": 4006,
      "ighlight": 4007,
      "ws": 4008,
      "Widget": 4009,
      "Env": 4010,
      "Ġ25": 4011,
      "Ġ[];": 4012,
      "Ġreference": 4013,
      "PER": 4014,
      "Func": 4015,
      "Ġinline": 4016,
      "ä¸Ĭ": 4017,
      "alk": 4018,
      "STAT": 4019,
      "trics": 4020,
      "Ġdie": 4021,
      "vid": 4022,
      "Host": 4023,
      "ëĬĶ": 4024,
      "IGHT": 4025,
      "HTML": 4026,
      "logger": 4027,
      "Net": 4028,
      "!(": 4029,
      "****************************************************************": 4030,
      "nn": 4031,
      "lar": 4032,
      "alt": 4033,
      "SER": 4034,
      "Ġ>>": 4035,
      "è¿Ļ": 4036,
      "Ġ202": 4037,
      "llum": 4038,
      "SO": 4039,
      "sup": 4040,
      "čĊĠĠ": 4041,
      "ants": 4042,
      "Ġdiv": 4043,
      "?>": 4044,
      "HOUT": 4045,
      "eek": 4046,
      "Ġhash": 4047,
      "foo": 4048,
      "Queue": 4049,
      "los": 4050,
      "herit": 4051,
      "ĠMicrosoft": 4052,
      "white": 4053,
      "Ġlogger": 4054,
      "æĸ¹": 4055,
      "Msg": 4056,
      "Ġselected": 4057,
      "!!": 4058,
      "(\"/": 4059,
      "Go": 4060,
      "lower": 4061,
      "åĴ": 4062,
      "Ġchannel": 4063,
      "SQL": 4064,
      "lue": 4065,
      "gor": 4066,
      "redential": 4067,
      "ĠAND": 4068,
      "00000": 4069,
      "Ġcontinue": 4070,
      "Ġvector": 4071,
      "bootstrap": 4072,
      "è¡¨": 4073,
      "Ñĩ": 4074,
      "Rule": 4075,
      "Invalid": 4076,
      "lluminate": 4077,
      "åĪĨ": 4078,
      "ĊĠĠĠĠĠĠĠĠĠĠĠĠĠĠĠĠĠĠ": 4079,
      "free": 4080,
      ")}": 4081,
      "cu": 4082,
      "áº": 4083,
      "Long": 4084,
      "Ġproduct": 4085,
      "CR": 4086,
      "éĿ": 4087,
      "Bind": 4088,
      "route": 4089,
      "å±": 4090,
      "exception": 4091,
      "ĠKey": 4092,
      "Ġbit": 4093,
      "ga": 4094,
      "Show": 4095,
      "inition": 4096,
      "details": 4097,
      "gex": 4098,
      "Collections": 4099,
      "ĠNo": 4100,
      "Root": 4101,
      "uture": 4102,
      ">.": 4103,
      "ĠIO": 4104,
      "Byte": 4105,
      "enum": 4106,
      "MENT": 4107,
      "Ġauth": 4108,
      "Ġrandom": 4109,
      "ĠAd": 4110,
      "Ġnormal": 4111,
      "\")]": 4112,
      "ĠÐ²": 4113,
      "score": 4114,
      "Ġloc": 4115,
      "Ġacc": 4116,
      "bc": 4117,
      "Ġ$(": 4118,
      "Admin": 4119,
      "fl": 4120,
      "fx": 4121,
      "ability": 4122,
      "wise": 4123,
      "IE": 4124,
      "Ġdone": 4125,
      "bad": 4126,
      "(:": 4127,
      "Ġfin": 4128,
      "Support": 4129,
      "annotation": 4130,
      "èĥ½": 4131,
      "CESS": 4132,
      "ĊĉĠ": 4133,
      "Ġ\"<": 4134,
      "Ġreadonly": 4135,
      "iki": 4136,
      "kt": 4137,
      "Ð¼": 4138,
      "Ġsample": 4139,
      "aml": 4140,
      "shadow": 4141,
      "ĠBase": 4142,
      "Debug": 4143,
      "CHE": 4144,
      "ï»": 4145,
      "acy": 4146,
      "ĠModel": 4147,
      "wrapper": 4148,
      "Enabled": 4149,
      "Ġelif": 4150,
      "ĠCO": 4151,
      "jo": 4152,
      "cv": 4153,
      "Ġthread": 4154,
      "Email": 4155,
      "CM": 4156,
      "ĠTrans": 4157,
      "DR": 4158,
      "Report": 4159,
      "ĠNOT": 4160,
      "bd": 4161,
      "åī": 4162,
      "Job": 4163,
      "Ġalready": 4164,
      "ï»¿": 4165,
      "results": 4166,
      "åĴĮ": 4167,
      "internal": 4168,
      "ĠURL": 4169,
      "Ġparam": 4170,
      "LICENSE": 4171,
      "names": 4172,
      "licenses": 4173,
      "Nav": 4174,
      "ars": 4175,
      "Ġglobal": 4176,
      "Ġgame": 4177,
      "125": 4178,
      "ãģĹãģ": 4179,
      "ĊĠĠĊĠ": 4180,
      "medi": 4181,
      "Ġtrain": 4182,
      "Cur": 4183,
      "pm": 4184,
      "Ġfree": 4185,
      "REG": 4186,
      "kens": 4187,
      "ĠNode": 4188,
      "arm": 4189,
      "plit": 4190,
      "è½": 4191,
      "Generic": 4192,
      "ĠHe": 4193,
      "Ġsave": 4194,
      "Ġlocation": 4195,
      "ĠAR": 4196,
      "çĲ": 4197,
      "math": 4198,
      "ferent": 4199,
      "Ġdes": 4200,
      "ĠIs": 4201,
      "springframework": 4202,
      "ĠWITHOUT": 4203,
      "ior": 4204,
      "Parent": 4205,
      "matrix": 4206,
      "Non": 4207,
      "Ġatt": 4208,
      "Ð¾Ð²": 4209,
      "SSERT": 4210,
      "Ġscope": 4211,
      "Ġemail": 4212,
      "ĠĠĠĠĠĠĠĠĠĠĠĠĠĠĠĠĠĠĠĠĠĠĠĠĠĠĠĠĠĠĠĠĠĠĠĠĠĠĠĠĠĠĠĠĠĠĠĠĠĠĠĠĠĠĠĠĠĠĠĠĠĠĠĠ": 4213,
      "å¦Ĥ": 4214,
      "encode": 4215,
      "prefix": 4216,
      "Ġtypes": 4217,
      "Timeout": 4218,
      "short": 4219,
      "ä½ľ": 4220,
      "ĠÑģ": 4221,
      "Ġscale": 4222,
      "IGN": 4223,
      "theme": 4224,
      "elf": 4225,
      "screen": 4226,
      "Ġdon": 4227,
      "fix": 4228,
      "Ġexpress": 4229,
      "TRGL": 4230,
      "íķĺ": 4231,
      "Main": 4232,
      "hav": 4233,
      "å¿": 4234,
      "çİ": 4235,
      "just": 4236,
      "ocker": 4237,
      "fields": 4238,
      "alert": 4239,
      "Ġtool": 4240,
      "Mark": 4241,
      "ending": 4242,
      "role": 4243,
      "Ġcalled": 4244,
      "ĠWindow": 4245,
      "''": 4246,
      "Sk": 4247,
      "ĠNO": 4248,
      "Metadata": 4249,
      "Selector": 4250,
      "'));": 4251,
      "ç½®": 4252,
      "âĸ": 4253,
      "liance": 4254,
      "9999": 4255,
      "Ġloaded": 4256,
      "ìĦ": 4257,
      "Forms": 4258,
      "ĠSub": 4259,
      "CF": 4260,
      "DA": 4261,
      "ĠView": 4262,
      "ather": 4263,
      "Ġ40": 4264,
      "connection": 4265,
      "xF": 4266,
      "OUT": 4267,
      "WH": 4268,
      "upload": 4269,
      ":#": 4270,
      "Ġgrid": 4271,
      "gh": 4272,
      "Register": 4273,
      "?.": 4274,
      "known": 4275,
      "callback": 4276,
      "PH": 4277,
      "itude": 4278,
      "Ġgr": 4279,
      "mar": 4280,
      "ç®": 4281,
      "Ġprovided": 4282,
      "ĠTask": 4283,
      "čĊĠĠĠĠĠĠĠĠĠ": 4284,
      "exec": 4285,
      "Ġexception": 4286,
      "reset": 4287,
      "ĠRout": 4288,
      "åıĸ": 4289,
      "domain": 4290,
      "non": 4291,
      "Ġrepresent": 4292,
      "served": 4293,
      "DATA": 4294,
      "endar": 4295,
      "eta": 4296,
      "Ġfields": 4297,
      "THER": 4298,
      "console": 4299,
      ".*": 4300,
      "yntax": 4301,
      "ĊĠĠĠĠĠĠĠĠĠĠĠĠĠĠĠĠĠĠĠĠĠĠĠĠĠĠĠĠĠ": 4302,
      "proto": 4303,
      "Ġlook": 4304,
      "ĠTODO": 4305,
      "alance": 4306,
      "Meta": 4307,
      "python": 4308,
      "Ġ``": 4309,
      "dropdown": 4310,
      "Ġ('": 4311,
      "........": 4312,
      "èĩ": 4313,
      "Details": 4314,
      "Selected": 4315,
      "Ġpermissions": 4316,
      "Ġfill": 4317,
      "Ġplayer": 4318,
      "||": 4319,
      "Ġ\"$": 4320,
      "Lib": 4321,
      "ãĥĪ": 4322,
      "Ġsingle": 4323,
      "ullable": 4324,
      "Over": 4325,
      "fb": 4326,
      "Ġentity": 4327,
      "400": 4328,
      "scal": 4329,
      "Ġagre": 4330,
      "ĠImage": 4331,
      "asure": 4332,
      "sys": 4333,
      "tags": 4334,
      "ONE": 4335,
      "Ġvol": 4336,
      ".\",": 4337,
      "PAR": 4338,
      "ä¸Ģä¸ª": 4339,
      "pu": 4340,
      "roke": 4341,
      "SU": 4342,
      "ç±": 4343,
      "Ġapi": 4344,
      "Parse": 4345,
      "track": 4346,
      "ĠDefault": 4347,
      "Ġim": 4348,
      "yy": 4349,
      "ctor": 4350,
      ":'": 4351,
      "Ġ'',": 4352,
      "500": 4353,
      "FFFF": 4354,
      "Ġwriting": 4355,
      "lines": 4356,
      "ç¨": 4357,
      "ILITY": 4358,
      "Ġum": 4359,
      "alle": 4360,
      "legate": 4361,
      "XT": 4362,
      "Ġsection": 4363,
      "Ġsettings": 4364,
      "Ġconstructor": 4365,
      "fmt": 4366,
      "ua": 4367,
      "after": 4368,
      "modules": 4369,
      "entication": 4370,
      "Pool": 4371,
      "ãģ§": 4372,
      "}`": 4373,
      "ium": 4374,
      "PL": 4375,
      "Ġgraph": 4376,
      "~~~~": 4377,
      "ä½¿çĶ¨": 4378,
      "ANT": 4379,
      "batch": 4380,
      "Ġmut": 4381,
      "Ġæ": 4382,
      "Ġrights": 4383,
      "ãĤ¹": 4384,
      "Build": 4385,
      "ĠInput": 4386,
      "Ġconf": 4387,
      "csv": 4388,
      "Ġhidden": 4389,
      "kw": 4390,
      "services": 4391,
      "LECT": 4392,
      "gorith": 4393,
      "contact": 4394,
      "Global": 4395,
      "çĲĨ": 4396,
      "cha": 4397,
      "300": 4398,
      "Ne": 4399,
      "voke": 4400,
      "æ³ķ": 4401,
      "Profile": 4402,
      "2020": 4403,
      "zy": 4404,
      "straint": 4405,
      "bove": 4406,
      "Ġmock": 4407,
      "Transaction": 4408,
      "åħ¥": 4409,
      "åİ": 4410,
      "101": 4411,
      "Ġgover": 4412,
      "dist": 4413,
      "ĠKIND": 4414,
      "_;": 4415,
      "boolean": 4416,
      ")\"": 4417,
      "Ġstep": 4418,
      "aws": 4419,
      "fit": 4420,
      "Has": 4421,
      "Ġtheir": 4422,
      "è´": 4423,
      "Ġ60": 4424,
      "PATH": 4425,
      "semb": 4426,
      "ĊĊĉĉĉ": 4427,
      "}</": 4428,
      "trie": 4429,
      "Author": 4430,
      "ways": 4431,
      "agn": 4432,
      "Fa": 4433,
      "focus": 4434,
      "grad": 4435,
      "PECT": 4436,
      "eno": 4437,
      "Ġerrors": 4438,
      "åĳ": 4439,
      "ometry": 4440,
      "Mapping": 4441,
      "language": 4442,
      "Ġrgba": 4443,
      "Ter": 4444,
      "/)": 4445,
      "clusterK": 4446,
      "Success": 4447,
      "ries": 4448,
      "ony": 4449,
      "xE": 4450,
      "feature": 4451,
      "ĠPRO": 4452,
      "(['": 4453,
      "PS": 4454,
      "Ġcl": 4455,
      "Layer": 4456,
      "Ver": 4457,
      "sec": 4458,
      "variable": 4459,
      "inte": 4460,
      "ely": 4461,
      "round": 4462,
      "Ġactive": 4463,
      "flag": 4464,
      "Ġ2017": 4465,
      "Ġjs": 4466,
      "Ġ'../": 4467,
      "Ġbr": 4468,
      "ë¡": 4469,
      "Ġman": 4470,
      "ric": 4471,
      "Ġbetween": 4472,
      "Struct": 4473,
      "ority": 4474,
      "Initial": 4475,
      "Ġconvert": 4476,
      "alys": 4477,
      "parser": 4478,
      "stat": 4479,
      "helper": 4480,
      "ops": 4481,
      "schema": 4482,
      "æķ°æį®": 4483,
      "lapse": 4484,
      "ACT": 4485,
      "children": 4486,
      "ategories": 4487,
      "Ġ```": 4488,
      "Ġperson": 4489,
      "Ġattribute": 4490,
      "LINE": 4491,
      "My": 4492,
      "COL": 4493,
      "Ġ{'": 4494,
      "Ġpl": 4495,
      "Ġimplied": 4496,
      "pass": 4497,
      "Ġcre": 4498,
      "Transform": 4499,
      "kind": 4500,
      "Rel": 4501,
      "bre": 4502,
      "mine": 4503,
      "Ġjob": 4504,
      "ĠHel": 4505,
      "Ġdoc": 4506,
      "storage": 4507,
      "Adapter": 4508,
      "Descript": 4509,
      "Total": 4510,
      "']['": 4511,
      "åĩº": 4512,
      "ker": 4513,
      "wner": 4514,
      "blog": 4515,
      "ç¤": 4516,
      "Ġ$('#": 4517,
      "Ġimplements": 4518,
      "olution": 4519,
      ".'": 4520,
      "ĠInteger": 4521,
      "Policy": 4522,
      "SL": 4523,
      "łģ": 4524,
      "You": 4525,
      "Ġ];": 4526,
      "æĸ°": 4527,
      "Track": 4528,
      "ssible": 4529,
      "ç±»": 4530,
      "é¢": 4531,
      "icons": 4532,
      "Ġexport": 4533,
      "mov": 4534,
      "Fields": 4535,
      "']);": 4536,
      "async": 4537,
      "ashboard": 4538,
      "tegr": 4539,
      "READ": 4540,
      "assertEquals": 4541,
      "^^": 4542,
      "Bit": 4543,
      "Ge": 4544,
      "ĠPer": 4545,
      "alysis": 4546,
      "ë¥": 4547,
      "rel": 4548,
      "Ġarguments": 4549,
      "testing": 4550,
      "Ġtree": 4551,
      "va": 4552,
      "LIST": 4553,
      "Ġoperator": 4554,
      "rief": 4555,
      "logy": 4556,
      "wd": 4557,
      "Ġspace": 4558,
      "DIR": 4559,
      "zer": 4560,
      "åĲį": 4561,
      "å¤§": 4562,
      "Ġclear": 4563,
      "ital": 4564,
      "ìĹĲ": 4565,
      "Plugin": 4566,
      "ĠMessage": 4567,
      "BE": 4568,
      "network": 4569,
      "Ġfact": 4570,
      "Ġcollection": 4571,
      "collection": 4572,
      "video": 4573,
      "answ": 4574,
      "Ġabove": 4575,
      "foreach": 4576,
      "Ġdf": 4577,
      "SION": 4578,
      "Ġng": 4579,
      "Ġfail": 4580,
      "](#": 4581,
      "layers": 4582,
      "ĠOpen": 4583,
      "ceived": 4584,
      "MIN": 4585,
      "loader": 4586,
      "tbody": 4587,
      "################################": 4588,
      "acing": 4589,
      "oly": 4590,
      "CI": 4591,
      "ĠGo": 4592,
      "Ġexit": 4593,
      "achine": 4594,
      "Models": 4595,
      "Ġrot": 4596,
      "blem": 4597,
      "Use": 4598,
      "validate": 4599,
      "ives": 4600,
      "Ġpred": 4601,
      "pag": 4602,
      "ToString": 4603,
      "handler": 4604,
      "Ġactual": 4605,
      "åŃĹ": 4606,
      "labels": 4607,
      "äºº": 4608,
      "cn": 4609,
      "ĠDB": 4610,
      "extern": 4611,
      "ãģĦ": 4612,
      "Ġthese": 4613,
      "ĠCo": 4614,
      "cpp": 4615,
      "Files": 4616,
      "ÂłÂł": 4617,
      "vision": 4618,
      "getElementById": 4619,
      "Ġwhat": 4620,
      "ales": 4621,
      "Ġgl": 4622,
      "REF": 4623,
      "assign": 4624,
      "Boolean": 4625,
      "Ġreport": 4626,
      "urrency": 4627,
      "switch": 4628,
      "âĢĿ": 4629,
      "abs": 4630,
      "contains": 4631,
      "ari": 4632,
      "ĠRequest": 4633,
      "NOT": 4634,
      "Ã§Ã£o": 4635,
      "Flags": 4636,
      "created": 4637,
      "Ġfilename": 4638,
      "Ġpointer": 4639,
      "Ġproperties": 4640,
      ".,": 4641,
      "mbda": 4642,
      "Ð´": 4643,
      "fff": 4644,
      "licit": 4645,
      "ica": 4646,
      "ertific": 4647,
      "Ġparser": 4648,
      "ĠOr": 4649,
      "oriz": 4650,
      "cel": 4651,
      "Can": 4652,
      "Bundle": 4653,
      "Only": 4654,
      "Ġmemory": 4655,
      "ĠPromise": 4656,
      "SY": 4657,
      "execute": 4658,
      "napshot": 4659,
      "Ġauthor": 4660,
      "Drawing": 4661,
      "typeof": 4662,
      "ICE": 4663,
      "æĪĳ": 4664,
      "cm": 4665,
      "ros": 4666,
      "Modal": 4667,
      ">;": 4668,
      "ç¬": 4669,
      "logo": 4670,
      "Wrapper": 4671,
      "hpp": 4672,
      "cla": 4673,
      "Lock": 4674,
      "Ġnetwork": 4675,
      "tf": 4676,
      "ĠOut": 4677,
      "Double": 4678,
      "Second": 4679,
      "(__": 4680,
      "WS": 4681,
      "Ġrelative": 4682,
      "apply": 4683,
      "dom": 4684,
      "dat": 4685,
      "lug": 4686,
      "çº": 4687,
      "Math": 4688,
      "Ġdifferent": 4689,
      "cause": 4690,
      "çĤ": 4691,
      "detail": 4692,
      "Ġok": 4693,
      "ffic": 4694,
      ";;": 4695,
      "1000": 4696,
      "Rad": 4697,
      "=\"<?": 4698,
      "Ass": 4699,
      "ê°": 4700,
      "ãģ¯": 4701,
      "åĬł": 4702,
      "äºİ": 4703,
      "chron": 4704,
      "Ġdim": 4705,
      "Ð°Ð½": 4706,
      "ï¼ī": 4707,
      "ĠArrayList": 4708,
      "æľ¬": 4709,
      "åº¦": 4710,
      "Ġstack": 4711,
      "čĊčĊĠĠĠĠĠĠĠĠĠĠĠ": 4712,
      "umpy": 4713,
      "Ġ2021": 4714,
      "Ġcontains": 4715,
      "Ġke": 4716,
      "vc": 4717,
      "Ġfailed": 4718,
      "Ġdirect": 4719,
      "Ġ1000": 4720,
      "aint": 4721,
      "Ġwould": 4722,
      "ĠLicensed": 4723,
      "WN": 4724,
      "ĠLoc": 4725,
      "ulation": 4726,
      "hether": 4727,
      "mac": 4728,
      "(@": 4729,
      "Ġmethods": 4730,
      "ĠĠĊĠĠ": 4731,
      "blob": 4732,
      "æı": 4733,
      "okie": 4734,
      "Ġsim": 4735,
      "ï¼Ī": 4736,
      "olver": 4737,
      "\\/": 4738,
      "properties": 4739,
      "Doc": 4740,
      "Ġ}}</": 4741,
      "ĠServer": 4742,
      "PP": 4743,
      "Network": 4744,
      "Internal": 4745,
      "}.": 4746,
      "Ġreserved": 4747,
      "clar": 4748,
      "åĲİ": 4749,
      "æĬ": 4750,
      "Ġpas": 4751,
      "YPE": 4752,
      "reshold": 4753,
      "material": 4754,
      "Ġoperation": 4755,
      "Ġthrough": 4756,
      "exists": 4757,
      "gy": 4758,
      "flags": 4759,
      "ĠHash": 4760,
      "erge": 4761,
      "phone": 4762,
      "urface": 4763,
      "bi": 4764,
      "ji": 4765,
      "WE": 4766,
      "aved": 4767,
      "ja": 4768,
      "ading": 4769,
      "CODE": 4770,
      "(\"%": 4771,
      "Step": 4772,
      "ons": 4773,
      "VENT": 4774,
      "RES": 4775,
      "oration": 4776,
      "Ac": 4777,
      "ĠRem": 4778,
      "Texture": 4779,
      "ìĿĦ": 4780,
      "leep": 4781,
      "microsoft": 4782,
      "alth": 4783,
      "real": 4784,
      "ç«": 4785,
      "()));": 4786,
      "Descriptor": 4787,
      "SK": 4788,
      "Ġapplicable": 4789,
      "Scope": 4790,
      "verter": 4791,
      "Sum": 4792,
      "uring": 4793,
      "ird": 4794,
      "ceive": 4795,
      "ĠNumber": 4796,
      "Ġscreen": 4797,
      "eric": 4798,
      "åıĳ": 4799,
      "dialog": 4800,
      "Space": 4801,
      "router": 4802,
      "Editor": 4803,
      "hide": 4804,
      "Full": 4805,
      "ĠHttp": 4806,
      "Py": 4807,
      "ights": 4808,
      "Symbol": 4809,
      "blue": 4810,
      "DITION": 4811,
      "Ð¿": 4812,
      "Directory": 4813,
      "Ġshort": 4814,
      "fail": 4815,
      "ä¼ļ": 4816,
      "rest": 4817,
      "rb": 4818,
      "parameters": 4819,
      "ĠCode": 4820,
      "æĭ": 4821,
      "Ġ\"\";": 4822,
      "gle": 4823,
      "ĠST": 4824,
      "\">&#": 4825,
      "scroll": 4826,
      "=\"\">": 4827,
      "ìļ": 4828,
      "Ġclose": 4829,
      "Ġsu": 4830,
      "iness": 4831,
      "attribute": 4832,
      "lare": 4833,
      "ĠInter": 4834,
      "Av": 4835,
      "Member": 4836,
      "Ġunit": 4837,
      "ĠAt": 4838,
      "dot": 4839,
      "Pointer": 4840,
      "ĠAct": 4841,
      "OM": 4842,
      "Ġtri": 4843,
      "Ġgenerate": 4844,
      "builder": 4845,
      "ĠUse": 4846,
      "getName": 4847,
      "Ġpop": 4848,
      "Any": 4849,
      "ĊĠĠĠĠĠĠĠĠĠĠĠĠĠĠĠĠĠĠĠĠĠĠĠĠĠĠĠĠĠĠĠĠĠĠĠĠĠĠĠĠĠĠĠĠĠĠĠĠĠĠĠ": 4850,
      "Ġserial": 4851,
      "cor": 4852,
      "Ġheaders": 4853,
      "ALSE": 4854,
      "anger": 4855,
      "Ġdetails": 4856,
      "å¼ı": 4857,
      "ship": 4858,
      "ĠAb": 4859,
      "su": 4860,
      "Package": 4861,
      "So": 4862,
      "Ġutil": 4863,
      "ply": 4864,
      "jquery": 4865,
      "typedef": 4866,
      "Ag": 4867,
      "ience": 4868,
      "èµ": 4869,
      "ĠassertEquals": 4870,
      "Area": 4871,
      "Ł¥": 4872,
      "QU": 4873,
      "}}</": 4874,
      "pair": 4875,
      "Ġ[],": 4876,
      "PUT": 4877,
      "atom": 4878,
      "tml": 4879,
      "ĠRed": 4880,
      "udent": 4881,
      "Send": 4882,
      "classes": 4883,
      "native": 4884,
      "brief": 4885,
      "symbol": 4886,
      "rot": 4887,
      "iÃ³n": 4888,
      "ĠTra": 4889,
      "Ġplugin": 4890,
      "That": 4891,
      "Ġdepend": 4892,
      "SR": 4893,
      "ĠSome": 4894,
      "Attributes": 4895,
      "Ġ'#": 4896,
      "trim": 4897,
      "TIME": 4898,
      "database": 4899,
      "à¤": 4900,
      "Ġflag": 4901,
      "GR": 4902,
      "Ġcorrect": 4903,
      "Err": 4904,
      "Ġinstanceof": 4905,
      "WARE": 4906,
      "Auto": 4907,
      "Import": 4908,
      "Section": 4909,
      "ĠId": 4910,
      "toBe": 4911,
      "disabled": 4912,
      "esh": 4913,
      "controller": 4914,
      ".\");": 4915,
      "allow": 4916,
      "year": 4917,
      "ĠVal": 4918,
      "Ġcompliance": 4919,
      "Ġlaw": 4920,
      "199": 4921,
      "plt": 4922,
      "unch": 4923,
      "bf": 4924,
      "ĠBe": 4925,
      "rf": 4926,
      "ç¨ĭ": 4927,
      "OFT": 4928,
      "chart": 4929,
      "ĠFOR": 4930,
      "Ġprops": 4931,
      "atar": 4932,
      "Ġsa": 4933,
      "requ": 4934,
      "stats": 4935,
      "ĠFunction": 4936,
      "ABILITY": 4937,
      "Constants": 4938,
      "Ġput": 4939,
      "BB": 4940,
      "Ġstop": 4941,
      "(\"\\": 4942,
      "ĠBAS": 4943,
      "Ġind": 4944,
      "ites": 4945,
      "/\"": 4946,
      "question": 4947,
      "ĠRun": 4948,
      "metadata": 4949,
      "Trace": 4950,
      "Ġtorch": 4951,
      "Ġ[[": 4952,
      "Ġfmt": 4953,
      "Ġbottom": 4954,
      "EXT": 4955,
      "åŃĺ": 4956,
      "2017": 4957,
      "events": 4958,
      "IST": 4959,
      "DER": 4960,
      "ured": 4961,
      "Ġ_,": 4962,
      "Ġcoord": 4963,
      "izes": 4964,
      "xt": 4965,
      "2019": 4966,
      "Keys": 4967,
      "Ġnullptr": 4968,
      "GS": 4969,
      "à¹": 4970,
      ">::": 4971,
      "crypt": 4972,
      "ÐµÑĢ": 4973,
      "azure": 4974,
      "ansport": 4975,
      "Ġconn": 4976,
      "Ġelements": 4977,
      "ĠFROM": 4978,
      "ĠĠĠĠĠĠĠĠĠĠĠĠĠĠĠĠĠĠĠ": 4979,
      "Ġnames": 4980,
      "Ġevery": 4981,
      "Ġabsolute": 4982,
      "WORD": 4983,
      "ãĤ¤": 4984,
      "ĠPage": 4985,
      "æŀľ": 4986,
      "ually": 4987,
      "čĊĉĉĉĉĉ": 4988,
      "ÅŁ": 4989,
      "ONT": 4990,
      "Ġwhite": 4991,
      ">{{": 4992,
      "ĠFound": 4993,
      "Ġhandler": 4994,
      "ĠTe": 4995,
      "Sync": 4996,
      "Ġul": 4997,
      "iment": 4998,
      "Ġstri": 4999,
      "exit": 5000,
      "Xml": 5001,
      "ìŀ": 5002,
      "ĠSQL": 5003,
      "safe": 5004,
      "arp": 5005,
      ")*": 5006,
      "=\\\"": 5007,
      "Ġbecause": 5008,
      "xC": 5009,
      "Ids": 5010,
      "fi": 5011,
      "ĠWindows": 5012,
      "Ġedit": 5013,
      "Ġplt": 5014,
      "single": 5015,
      "dk": 5016,
      "DateTime": 5017,
      "Ġbuf": 5018,
      "Ġ22": 5019,
      "Ġ\\\"": 5020,
      "æİ¥": 5021,
      "zip": 5022,
      "Ġcmd": 5023,
      "Loader": 5024,
      "Remove": 5025,
      "DU": 5026,
      "MAGE": 5027,
      "Media": 5028,
      "counter": 5029,
      "ĠÐ½": 5030,
      "vs": 5031,
      "ĠResult": 5032,
      "Ġbased": 5033,
      "hi": 5034,
      "columns": 5035,
      "wiki": 5036,
      "Ġgu": 5037,
      "throw": 5038,
      "ĠÐ¸": 5039,
      "Ġ(_": 5040,
      "Ġmatrix": 5041,
      "sive": 5042,
      "Expect": 5043,
      "NotNull": 5044,
      "()))": 5045,
      "Ġ\"./": 5046,
      "Fail": 5047,
      "Ġtf": 5048,
      "Ġdir": 5049,
      "pdf": 5050,
      "ç¤º": 5051,
      "ĠBy": 5052,
      "ë¡ľ": 5053,
      "amount": 5054,
      "Scale": 5055,
      "throws": 5056,
      "æģ": 5057,
      "LS": 5058,
      "itive": 5059,
      "done": 5060,
      "Required": 5061,
      "ĠMA": 5062,
      "fetch": 5063,
      "ident": 5064,
      "Ġiss": 5065,
      "Ġreal": 5066,
      "Ġsite": 5067,
      "ĠCONDITION": 5068,
      "TION": 5069,
      "Ġgoverning": 5070,
      "cfg": 5071,
      "Memory": 5072,
      "Enumer": 5073,
      "å¥": 5074,
      "åīį": 5075,
      "ĠEd": 5076,
      "Kind": 5077,
      "forEach": 5078,
      "æĽ": 5079,
      "topic": 5080,
      "sn": 5081,
      "ĠBASIS": 5082,
      "rd": 5083,
      "Ġ{};": 5084,
      "Ġbuilder": 5085,
      "RI": 5086,
      "gorithm": 5087,
      "ategy": 5088,
      "acc": 5089,
      "Ġtrack": 5090,
      "Temp": 5091,
      "sig": 5092,
      "]))": 5093,
      "encies": 5094,
      "Ġfeature": 5095,
      "ĠService": 5096,
      "åĽŀ": 5097,
      "imit": 5098,
      "ifdef": 5099,
      "Constraint": 5100,
      "ĊĊĠĠĠĠĠĠĠĠĠ": 5101,
      "+\"": 5102,
      "Save": 5103,
      "Ġdraw": 5104,
      "atio": 5105,
      "rary": 5106,
      "JS": 5107,
      "ĠCONDITIONS": 5108,
      "=\"../../": 5109,
      "FT": 5110,
      "Login": 5111,
      "Ġusers": 5112,
      "GB": 5113,
      "front": 5114,
      "notation": 5115,
      "Feature": 5116,
      "Ġshape": 5117,
      "loss": 5118,
      "usr": 5119,
      "Ġfunctions": 5120,
      "Ġcho": 5121,
      "Events": 5122,
      "ĠStart": 5123,
      "ha": 5124,
      "OB": 5125,
      "Ġmenu": 5126,
      "===": 5127,
      "pool": 5128,
      "Ġagreed": 5129,
      ";\"": 5130,
      "fg": 5131,
      "vi": 5132,
      "socket": 5133,
      "Common": 5134,
      "Ġinst": 5135,
      "culate": 5136,
      "prev": 5137,
      "Ġkeys": 5138,
      "super": 5139,
      "REQ": 5140,
      "Conf": 5141,
      "Ġ\"#": 5142,
      "tools": 5143,
      "ana": 5144,
      "Ġxml": 5145,
      "activ": 5146,
      "ë¥¼": 5147,
      "Ġbg": 5148,
      "orizont": 5149,
      "Single": 5150,
      "Ġpoints": 5151,
      "Ġ<-": 5152,
      "ĠIP": 5153,
      "ìł": 5154,
      "Generator": 5155,
      "coord": 5156,
      "æ¯": 5157,
      "Ġpython": 5158,
      "OFTWARE": 5159,
      ">{": 5160,
      "inst": 5161,
      "TEXT": 5162,
      "ico": 5163,
      "Results": 5164,
      "flu": 5165,
      "rollers": 5166,
      "ĠRead": 5167,
      "Screen": 5168,
      "Ġraw": 5169,
      "MODE": 5170,
      "asset": 5171,
      "El": 5172,
      "Align": 5173,
      "ours": 5174,
      "Ġlang": 5175,
      "hes": 5176,
      "Ġ\"-": 5177,
      "Ġoriginal": 5178,
      "ê³": 5179,
      "install": 5180,
      "Ġsetup": 5181,
      ";<": 5182,
      "Ġmb": 5183,
      "Ġlimitations": 5184,
      "Ġobjects": 5185,
      "çĤ¹": 5186,
      "Ġprintf": 5187,
      "CLA": 5188,
      "ndef": 5189,
      "Detail": 5190,
      "pare": 5191,
      "assertEqual": 5192,
      "Ġown": 5193,
      "letion": 5194,
      "ĠĊĠ": 5195,
      "duction": 5196,
      "Ġbatch": 5197,
      "lain": 5198,
      "XFF": 5199,
      "catch": 5200,
      "FR": 5201,
      "It": 5202,
      "Ġsys": 5203,
      "CD": 5204,
      "lyph": 5205,
      "ĊĠĠĠĠĠĠĠĠĠĠĠĠĊĠĠĠĠĠĠĠĠĠĠĠ": 5206,
      "axis": 5207,
      "SELECT": 5208,
      "æµ": 5209,
      "Ġjustify": 5210,
      "redentials": 5211,
      "plat": 5212,
      "rand": 5213,
      "FORM": 5214,
      "'=>'": 5215,
      "Ġsent": 5216,
      "Ġtranslate": 5217,
      "OO": 5218,
      "bus": 5219,
      "resolve": 5220,
      "iterator": 5221,
      "Domain": 5222,
      "Runtime": 5223,
      "GER": 5224,
      "protected": 5225,
      "Identifier": 5226,
      "Prefix": 5227,
      "Word": 5228,
      "FIG": 5229,
      "quiv": 5230,
      "FUN": 5231,
      "seq": 5232,
      "virtual": 5233,
      "Ġbegin": 5234,
      "ĠMy": 5235,
      "Ġblack": 5236,
      "001": 5237,
      "Ġprevious": 5238,
      "pipe": 5239,
      "\">{{": 5240,
      "release": 5241,
      "NET": 5242,
      "Ġadded": 5243,
      "dataset": 5244,
      "ks": 5245,
      "ook": 5246,
      "Ġìŀ": 5247,
      "ĠColor": 5248,
      "ĠItem": 5249,
      "FC": 5250,
      "nodes": 5251,
      "raint": 5252,
      "ping": 5253,
      "Ġedge": 5254,
      "ressed": 5255,
      "MI": 5256,
      "LEN": 5257,
      "Ġassoci": 5258,
      "manage": 5259,
      "Off": 5260,
      "win": 5261,
      "ifndef": 5262,
      "ĠâĶ": 5263,
      "chedule": 5264,
      "hl": 5265,
      "ÐµÑĤ": 5266,
      "issing": 5267,
      "prec": 5268,
      "alpha": 5269,
      "Ġassign": 5270,
      "ä¿¡": 5271,
      "Ġmov": 5272,
      "Vertex": 5273,
      "Cre": 5274,
      "æĿ¥": 5275,
      "Db": 5276,
      "$$": 5277,
      "ACE": 5278,
      "Ġstorage": 5279,
      "ĠEXPECT": 5280,
      "Ġfolder": 5281,
      "ERE": 5282,
      "ament": 5283,
      "à¯į": 5284,
      "\">(": 5285,
      "sim": 5286,
      "åŀ": 5287,
      "Simple": 5288,
      "BIT": 5289,
      "ĠPoint": 5290,
      "Pop": 5291,
      "ement": 5292,
      "checkbox": 5293,
      "enable": 5294,
      "Ġreturned": 5295,
      "ãĥ¼ãĥ": 5296,
      "è¿ĩ": 5297,
      "'].": 5298,
      "ires": 5299,
      "losed": 5300,
      "ĠCal": 5301,
      "Ġ\".": 5302,
      "Sample": 5303,
      "åı¯ä»¥": 5304,
      "ĠEN": 5305,
      "ended": 5306,
      "ĠTH": 5307,
      "Tests": 5308,
      "mob": 5309,
      ">)": 5310,
      "æīĢ": 5311,
      "stead": 5312,
      "=[": 5313,
      "Coord": 5314,
      "orizontal": 5315,
      "Ġattr": 5316,
      "parameter": 5317,
      "ij": 5318,
      "ĠJava": 5319,
      "Sort": 5320,
      "USER": 5321,
      "ĠResponse": 5322,
      "ãģĮ": 5323,
      "black": 5324,
      "zone": 5325,
      "Ġdict": 5326,
      "DOT": 5327,
      "Failed": 5328,
      "Ca": 5329,
      "chain": 5330,
      "Ġ({": 5331,
      "Ġcursor": 5332,
      "ãģ¨": 5333,
      "Dest": 5334,
      ">&#": 5335,
      "uby": 5336,
      "åĻ": 5337,
      "Interval": 5338,
      "ocial": 5339,
      "circle": 5340,
      "Pair": 5341,
      "hand": 5342,
      "Ġroute": 5343,
      "Ġalert": 5344,
      "Ġlayer": 5345,
      "Ġve": 5346,
      "ograph": 5347,
      "çŃ": 5348,
      "æĥ": 5349,
      "Selection": 5350,
      "ìĬ": 5351,
      "cli": 5352,
      "Ġmodels": 5353,
      "ynchron": 5354,
      "download": 5355,
      "Ġway": 5356,
      "Ġ80": 5357,
      "miss": 5358,
      "Ġ'.": 5359,
      "Ġclick": 5360,
      "CRE": 5361,
      "Socket": 5362,
      "Fin": 5363,
      "Copy": 5364,
      "Del": 5365,
      "Normal": 5366,
      "ì§": 5367,
      "mean": 5368,
      "Effect": 5369,
      "Ġwait": 5370,
      "ral": 5371,
      "fra": 5372,
      "Folder": 5373,
      "imate": 5374,
      "checked": 5375,
      "ĠUnless": 5376,
      "Ġtests": 5377,
      "Att": 5378,
      "EE": 5379,
      "folder": 5380,
      "rule": 5381,
      "Ġdebug": 5382,
      "Ġpd": 5383,
      "USE": 5384,
      "Ġsuch": 5385,
      "ĠSOFTWARE": 5386,
      "Ġ$(\"#": 5387,
      "ĠUs": 5388,
      ")[": 5389,
      "Ġcolspan": 5390,
      "Ġ$_": 5391,
      "mbers": 5392,
      "verity": 5393,
      "condition": 5394,
      "rect": 5395,
      "Ġsimple": 5396,
      "åĻ¨": 5397,
      "Flag": 5398,
      "Ġ21": 5399,
      "]['": 5400,
      "ĠìĿ": 5401,
      "Ġer": 5402,
      "Ġqueue": 5403,
      "Chart": 5404,
      "è¯·": 5405,
      "åĬ¨": 5406,
      "Ð¾Ð»": 5407,
      "Ġhigh": 5408,
      "Ġequal": 5409,
      "Ġconnect": 5410,
      "anagement": 5411,
      "lineno": 5412,
      "answer": 5413,
      "čĊčĊĉ": 5414,
      "DEF": 5415,
      "quare": 5416,
      "Ġtypeof": 5417,
      "ipeline": 5418,
      "ãĤ¯": 5419,
      "2018": 5420,
      "pping": 5421,
      "akes": 5422,
      "Ġperform": 5423,
      "Iterator": 5424,
      "agent": 5425,
      "xA": 5426,
      "EM": 5427,
      "Ġautom": 5428,
      "Conn": 5429,
      "éĹ´": 5430,
      "ĠĠĊ": 5431,
      "èĩª": 5432,
      "Ġ\"'": 5433,
      "Edge": 5434,
      "Ġspan": 5435,
      "Ġ{%": 5436,
      "Ġda": 5437,
      "LOCK": 5438,
      "diff": 5439,
      "çĶŁ": 5440,
      "lier": 5441,
      "Price": 5442,
      "à¦": 5443,
      "ĠLI": 5444,
      "dig": 5445,
      "ront": 5446,
      "åĢ¼": 5447,
      "allet": 5448,
      "ĠPath": 5449,
      "Ġamount": 5450,
      "Ġlibrary": 5451,
      "čĊĠĠĠĠĠĠĠĠĠĠĠĠĠĠĠĠĠĠĠĠĠĠĠĠĠĠĠ": 5452,
      "Tri": 5453,
      "Ġ102": 5454,
      "note": 5455,
      "æĪ·": 5456,
      "ados": 5457,
      "ajax": 5458,
      "ĠĊĉ": 5459,
      "Ġcould": 5460,
      "Ġapply": 5461,
      "verage": 5462,
      "uler": 5463,
      "Services": 5464,
      "antity": 5465,
      "JE": 5466,
      "Condition": 5467,
      "invalid": 5468,
      "ĠImp": 5469,
      "ench": 5470,
      "ets": 5471,
      "Bean": 5472,
      "Example": 5473,
      "ito": 5474,
      "AV": 5475,
      "ĠÐº": 5476,
      "ç´": 5477,
      "Statement": 5478,
      "jection": 5479,
      "çłģ": 5480,
      "Ġinsert": 5481,
      "unique": 5482,
      "ongo": 5483,
      "Ġsure": 5484,
      "features": 5485,
      "Pl": 5486,
      "ĊĠĠĠĠĠĠĠĠĠĠĠĠĠĠĠĠĠĠĠĠĠĠĠĠĠĠ": 5487,
      "Ġrunning": 5488,
      "ĠÐ¾": 5489,
      "Extension": 5490,
      "room": 5491,
      "cour": 5492,
      "åŀĭ": 5493,
      "čĊĠĠĠĠĠĠĠĠ": 5494,
      "éĿ¢": 5495,
      "ĠValid": 5496,
      "ĠSp": 5497,
      "attributes": 5498,
      "MT": 5499,
      "deg": 5500,
      "Vol": 5501,
      "ĊĊĠĠĠĠĠĠĠĠĠĠĠĠĠĠĠĠĠĠĠĠĠĠĠ": 5502,
      "ama": 5503,
      "Ġ\"%": 5504,
      "android": 5505,
      "Cap": 5506,
      "ç¼": 5507,
      "comm": 5508,
      "0000000": 5509,
      "angular": 5510,
      "Ġbeing": 5511,
      "(\".": 5512,
      "ĠComponent": 5513,
      "dark": 5514,
      "Ġnodes": 5515,
      "Find": 5516,
      "mal": 5517,
      "ĠQu": 5518,
      ";/": 5519,
      "Play": 5520,
      "security": 5521,
      "while": 5522,
      "éģ": 5523,
      "Visible": 5524,
      "ãģ¾": 5525,
      "Ġcopyright": 5526,
      "Desc": 5527,
      "asy": 5528,
      "sync": 5529,
      "Ġ'';": 5530,
      "VM": 5531,
      "Mouse": 5532,
      "cmp": 5533,
      "Ġcard": 5534,
      "Ġmed": 5535,
      "decode": 5536,
      "Ġsubject": 5537,
      "_(": 5538,
      "Ġ23": 5539,
      "\"}": 5540,
      "each": 5541,
      "Ġboth": 5542,
      "STATUS": 5543,
      "chat": 5544,
      "åĨħ": 5545,
      "BR": 5546,
      "å®ŀ": 5547,
      "ONG": 5548,
      "æĢ§": 5549,
      "typename": 5550,
      "ìĿĺ": 5551,
      "3333": 5552,
      "endor": 5553,
      "bound": 5554,
      "sumer": 5555,
      "tc": 5556,
      "åįķ": 5557,
      "Mapper": 5558,
      "Īëĭ¤": 5559,
      "Ġsql": 5560,
      "Ġss": 5561,
      "Scroll": 5562,
      "Rate": 5563,
      "Ġignore": 5564,
      "VALID": 5565,
      "ina": 5566,
      "Proxy": 5567,
      "Ġevents": 5568,
      "OD": 5569,
      "direction": 5570,
      "heading": 5571,
      "transition": 5572,
      "Ġ'../../": 5573,
      "ĠPh": 5574,
      "Ġyear": 5575,
      "CCESS": 5576,
      ":\\": 5577,
      "çľ": 5578,
      "Mat": 5579,
      "bra": 5580,
      "ĊĠĠĠĠĠĠĠĠĠĠĠĠĠĠĠĠĠĠĠĠĠĠ": 5581,
      "å¼Ģ": 5582,
      "lated": 5583,
      "istribution": 5584,
      "andid": 5585,
      "moz": 5586,
      "ĠAction": 5587,
      "otion": 5588,
      "Ġ([": 5589,
      "ertificate": 5590,
      "è®¾": 5591,
      "kwargs": 5592,
      "collapse": 5593,
      "Progress": 5594,
      "Ð°ÑĤ": 5595,
      "ĠIlluminate": 5596,
      "ĠAnd": 5597,
      "Dim": 5598,
      "Ġvariables": 5599,
      "vue": 5600,
      "Sequence": 5601,
      "Ġpayload": 5602,
      "Ġredirect": 5603,
      "headers": 5604,
      "plan": 5605,
      "Ġprefix": 5606,
      "istic": 5607,
      "After": 5608,
      "Ġnotice": 5609,
      "ĠÐ´": 5610,
      "izing": 5611,
      "repeat": 5612,
      "ods": 5613,
      "/{": 5614,
      "WHEN": 5615,
      "ĊĠĠĠĠĠĠĠĠĠĠĠĠĠĠĠĠĠĠĠĠĠĠĠĠĠĠĠĠ": 5616,
      "Ñħ": 5617,
      "rm": 5618,
      "ĊĊĠĠĠĠ": 5619,
      "Contact": 5620,
      "star": 5621,
      "Ġmultiple": 5622,
      ")/": 5623,
      "Ġcap": 5624,
      "]+": 5625,
      "Ãł": 5626,
      "NT": 5627,
      "Move": 5628,
      "wp": 5629,
      "ĊĠĠĠĠĠĠĠĠĠĠĠĠĠĠĠĠĠĠĠĠĠĠĠĠĠĠĠĠĠĠĠĠĠĠĠĠĠĠĠĠĠĠĠĠĠĠĠĠĠĠĠĠĠĠĠĠĠĠĠĠĠĠĠĠ": 5630,
      "rupt": 5631,
      "Ġagain": 5632,
      "grade": 5633,
      "ðŁ": 5634,
      "Ġcluster": 5635,
      "æģ¯": 5636,
      "Ġreplace": 5637,
      "tries": 5638,
      "Gen": 5639,
      "ĠLOG": 5640,
      "Ð·": 5641,
      "æĹ¥": 5642,
      "ested": 5643,
      "800": 5644,
      "Ġhand": 5645,
      "termin": 5646,
      "Ġchanges": 5647,
      "Ġrad": 5648,
      "ĠPublic": 5649,
      "tile": 5650,
      "Ġconditions": 5651,
      "VERSION": 5652,
      "ĠINT": 5653,
      "PU": 5654,
      "Ġinv": 5655,
      "ÙĦ": 5656,
      ">'": 5657,
      "uest": 5658,
      "tk": 5659,
      "Ġappend": 5660,
      "Ġpattern": 5661,
      "istics": 5662,
      "Java": 5663,
      "ĠHTTP": 5664,
      "Shape": 5665,
      "Bus": 5666,
      "Users": 5667,
      "team": 5668,
      "Ġidx": 5669,
      "ĠProject": 5670,
      "Ġdocumentation": 5671,
      "VID": 5672,
      "progress": 5673,
      "DEFAULT": 5674,
      "Ġworld": 5675,
      "pattern": 5676,
      "IVE": 5677,
      "Home": 5678,
      "NUM": 5679,
      "acion": 5680,
      "complete": 5681,
      "Ġna": 5682,
      "warning": 5683,
      "æ¬": 5684,
      "Ġmove": 5685,
      "sched": 5686,
      "VALUE": 5687,
      "odo": 5688,
      "pose": 5689,
      "Ġmask": 5690,
      "Ãª": 5691,
      "radio": 5692,
      "xB": 5693,
      "sheet": 5694,
      "Sql": 5695,
      "Ġwhether": 5696,
      "loading": 5697,
      "BY": 5698,
      "åĿ": 5699,
      "Ġwithin": 5700,
      "Ġâ": 5701,
      "éĢļ": 5702,
      "trigger": 5703,
      "Ġcharacter": 5704,
      "Ġrows": 5705,
      ",</": 5706,
      "åĬ¡": 5707,
      "za": 5708,
      "Vec": 5709,
      "Ġvec": 5710,
      "]=": 5711,
      "zen": 5712,
      "generate": 5713,
      "Ġindic": 5714,
      "ĠSH": 5715,
      "Ġfetch": 5716,
      "ters": 5717,
      "platform": 5718,
      "trace": 5719,
      "crement": 5720,
      "DATE": 5721,
      "ea": 5722,
      "okup": 5723,
      "ansparent": 5724,
      "123": 5725,
      "EC": 5726,
      ",$": 5727,
      "term": 5728,
      "Ġcolumns": 5729,
      "land": 5730,
      "Note": 5731,
      "ti": 5732,
      "æ±": 5733,
      "Ġ2016": 5734,
      "Before": 5735,
      "Ax": 5736,
      "Ġund": 5737,
      "Ġdefine": 5738,
      "={{": 5739,
      "çĽ®": 5740,
      "Nodes": 5741,
      "runtime": 5742,
      "href": 5743,
      "Drop": 5744,
      "ĠGame": 5745,
      "orrect": 5746,
      "ĠHTML": 5747,
      "aut": 5748,
      "craft": 5749,
      "ķãĤ": 5750,
      "HTTP": 5751,
      "abil": 5752,
      "]),": 5753,
      "Ġden": 5754,
      "Art": 5755,
      "Ġcommon": 5756,
      "Security": 5757,
      "Ġloop": 5758,
      "aff": 5759,
      "æĸĩä»¶": 5760,
      "Ġ#[": 5761,
      "ycle": 5762,
      "alf": 5763,
      "Ġexpression": 5764,
      "iform": 5765,
      "ĠArg": 5766,
      "rome": 5767,
      "translation": 5768,
      "Ġenvironment": 5769,
      "vance": 5770,
      "Gu": 5771,
      "ÄŁ": 5772,
      "ĠMethod": 5773,
      "ĠState": 5774,
      "udo": 5775,
      "eps": 5776,
      "legal": 5777,
      "rv": 5778,
      "ves": 5779,
      "loop": 5780,
      "åĵ": 5781,
      "ura": 5782,
      "Ġmessages": 5783,
      "Stat": 5784,
      "/'": 5785,
      "payload": 5786,
      "den": 5787,
      "danger": 5788,
      "SM": 5789,
      "timestamp": 5790,
      "Ġ-=": 5791,
      "Ġupdated": 5792,
      "Ġvertical": 5793,
      "Ġarr": 5794,
      "Year": 5795,
      "Book": 5796,
      "bash": 5797,
      "Ġdrop": 5798,
      "ek": 5799,
      "Ġenable": 5800,
      "UTF": 5801,
      "Real": 5802,
      "cout": 5803,
      "velopment": 5804,
      "Video": 5805,
      "FLA": 5806,
      "Amount": 5807,
      "čĊĠĠĠĠĠĠĠĠĠĠĠĠĠ": 5808,
      "inates": 5809,
      "acters": 5810,
      "Ġschema": 5811,
      "Ġreset": 5812,
      "oth": 5813,
      "å»": 5814,
      "Ġtransition": 5815,
      "ĠĠĠĠĠĠĠĠĠĠĠĠĠĠĠĠĠ": 5816,
      "Ġplay": 5817,
      "ummy": 5818,
      "Ġside": 5819,
      "uf": 5820,
      "ĠEnd": 5821,
      "Ġcharset": 5822,
      "Len": 5823,
      "ILE": 5824,
      "Ġfs": 5825,
      "slice": 5826,
      "ĠClient": 5827,
      "thead": 5828,
      "ando": 5829,
      "Ġocc": 5830,
      "Ġmost": 5831,
      "depend": 5832,
      "aging": 5833,
      "fully": 5834,
      "Ġonce": 5835,
      "ĊĠĠĠĠĠĠĠĠĠĠĠĠĠĠĠĠĠĠĠĠĠĠĠĠĠĠĠĠĠĠĠĠĠĠĠĠĠĠĠĠĠĠĠĠĠĠĠĠĠĠĠĠĠĠĠ": 5836,
      "fp": 5837,
      "xl": 5838,
      "ĠTR": 5839,
      "disable": 5840,
      "Pe": 5841,
      "Ġrem": 5842,
      "ied": 5843,
      "ĠCreated": 5844,
      "è¨": 5845,
      "swing": 5846,
      "memory": 5847,
      "Ġbar": 5848,
      "pad": 5849,
      "éĶ": 5850,
      "åŁ": 5851,
      "ateway": 5852,
      "twitter": 5853,
      "ĠJson": 5854,
      "ĠDi": 5855,
      "Pattern": 5856,
      "Ġdesc": 5857,
      "ural": 5858,
      "memItem": 5859,
      "hy": 5860,
      "loor": 5861,
      "2016": 5862,
      "ĠÃ©": 5863,
      "XML": 5864,
      "origin": 5865,
      "2021": 5866,
      "eeded": 5867,
      "ĠStatus": 5868,
      "\":[": 5869,
      ":**": 5870,
      "Ġrule": 5871,
      "Opt": 5872,
      "pTypes": 5873,
      "%\"": 5874,
      "SV": 5875,
      "Ġrelease": 5876,
      "Ġ',": 5877,
      "obile": 5878,
      "LAY": 5879,
      "Ġ2015": 5880,
      "arrow": 5881,
      "BASE": 5882,
      "Ġaxis": 5883,
      "chor": 5884,
      "resources": 5885,
      "Ġbinary": 5886,
      "Ġbind": 5887,
      "!=": 5888,
      "ADD": 5889,
      "600": 5890,
      "Ġlock": 5891,
      "************************************************************************": 5892,
      "CB": 5893,
      "éĥ": 5894,
      "ones": 5895,
      "ĠCustom": 5896,
      "fil": 5897,
      "Ġattributes": 5898,
      "ula": 5899,
      "Uri": 5900,
      "Ġlean": 5901,
      "Ġusername": 5902,
      "isset": 5903,
      "Ġexists": 5904,
      "riteria": 5905,
      "objects": 5906,
      "tick": 5907,
      "pture": 5908,
      "aper": 5909,
      "éľ": 5910,
      "<!": 5911,
      "validation": 5912,
      "month": 5913,
      "ifest": 5914,
      "å°±": 5915,
      "program": 5916,
      "å¤ļ": 5917,
      "History": 5918,
      "library": 5919,
      "åľ°": 5920,
      "conv": 5921,
      "times": 5922,
      "Man": 5923,
      "íķľ": 5924,
      "sembly": 5925,
      "Lin": 5926,
      "ĠVar": 5927,
      "translate": 5928,
      "Ġgen": 5929,
      "sent": 5930,
      "Ġhead": 5931,
      "->_": 5932,
      "åĲĪ": 5933,
      "1111": 5934,
      "è·": 5935,
      "pet": 5936,
      "Ġopacity": 5937,
      "',['": 5938,
      "èİ": 5939,
      "mk": 5940,
      "unded": 5941,
      "strict": 5942,
      "è¿Ľ": 5943,
      "ployment": 5944,
      ")\",": 5945,
      "mouse": 5946,
      "Ġ28": 5947,
      "ĠPO": 5948,
      "bose": 5949,
      "Ġpresent": 5950,
      "setup": 5951,
      "åĽ¾": 5952,
      "æľĢ": 5953,
      "Hub": 5954,
      "ione": 5955,
      "Background": 5956,
      "Br": 5957,
      "IV": 5958,
      "dp": 5959,
      "âĸĪ": 5960,
      "Ġdefinition": 5961,
      "cdn": 5962,
      "ĠStr": 5963,
      "hook": 5964,
      "ÅĤ": 5965,
      "ople": 5966,
      "zero": 5967,
      "åıĤ": 5968,
      "ĠBlock": 5969,
      "demo": 5970,
      "Sup": 5971,
      "Ġbrowser": 5972,
      "DIS": 5973,
      "Ġappro": 5974,
      "uting": 5975,
      "Ġ26": 5976,
      "words": 5977,
      "loyee": 5978,
      "rec": 5979,
      "ĠBoolean": 5980,
      "ORY": 5981,
      "ĠField": 5982,
      "Ġmodify": 5983,
      "ational": 5984,
      "Ġ'\"": 5985,
      ":`": 5986,
      "oment": 5987,
      "JECT": 5988,
      "city": 5989,
      "åºĶ": 5990,
      "Ap": 5991,
      "ough": 5992,
      "Ġê°": 5993,
      "}\",": 5994,
      "UNT": 5995,
      "Fragment": 5996,
      "overflow": 5997,
      "driver": 5998,
      "ĠResource": 5999,
      "pb": 6000,
      "éĽ": 6001,
      "Scal": 6002,
      "Ġfix": 6003,
      "Ġident": 6004,
      "Ġsup": 6005,
      "amb": 6006,
      "Expr": 6007,
      "ĠLink": 6008,
      "()),": 6009,
      "iver": 6010,
      ":(": 6011,
      "atile": 6012,
      "gistration": 6013,
      "cos": 6014,
      "Tip": 6015,
      "Ġface": 6016,
      "è°": 6017,
      "Ġpossible": 6018,
      "éħ": 6019,
      "ãģĻãĤĭ": 6020,
      "Ġcar": 6021,
      "havior": 6022,
      "Ġmiddle": 6023,
      "åĪĹ": 6024,
      "Mesh": 6025,
      "optional": 6026,
      "inv": 6027,
      "Language": 6028,
      "Ġdescribe": 6029,
      "ĠÄ": 6030,
      "construct": 6031,
      "cart": 6032,
      "Ġil": 6033,
      "Ġmetadata": 6034,
      "Flow": 6035,
      "\"].": 6036,
      "Ġrequests": 6037,
      "ĠSc": 6038,
      "NU": 6039,
      "ĠDis": 6040,
      "Ġinstead": 6041,
      "COMP": 6042,
      "Public": 6043,
      "cut": 6044,
      "Ġbest": 6045,
      "]],": 6046,
      "ĠWH": 6047,
      "Ġlayout": 6048,
      "Īĺ": 6049,
      "ife": 6050,
      "æ¨": 6051,
      "pages": 6052,
      "fol": 6053,
      "ĠOTHER": 6054,
      "0000000000000000": 6055,
      "Ġlines": 6056,
      "Ġmeta": 6057,
      "ourse": 6058,
      "ĠCommand": 6059,
      "alyt": 6060,
      "directory": 6061,
      "ĠVer": 6062,
      "isEmpty": 6063,
      "world": 6064,
      "Ġ..": 6065,
      "LOC": 6066,
      "******": 6067,
      "oken": 6068,
      "(/": 6069,
      "%,": 6070,
      ".<": 6071,
      "cipe": 6072,
      "Attr": 6073,
      "Ġflags": 6074,
      "ango": 6075,
      "ĉĉĉĉĉĉĉĉ": 6076,
      "=%": 6077,
      "Ġlogging": 6078,
      "SCR": 6079,
      "cursor": 6080,
      "ĠonClick": 6081,
      "Ġinvalid": 6082,
      "ention": 6083,
      "|.": 6084,
      ">\"": 6085,
      "Static": 6086,
      "192": 6087,
      "å½ĵ": 6088,
      "FONT": 6089,
      "Random": 6090,
      "shift": 6091,
      "pkg": 6092,
      "wt": 6093,
      "Ġhel": 6094,
      "Enter": 6095,
      "æłĩ": 6096,
      "tsd": 6097,
      "110": 6098,
      "aries": 6099,
      "Ġcategory": 6100,
      "STRING": 6101,
      "Ġoptional": 6102,
      "Ġfixed": 6103,
      "tle": 6104,
      "loaded": 6105,
      "Ġdataset": 6106,
      "Ġinteger": 6107,
      "Äħ": 6108,
      "CHECK": 6109,
      "factory": 6110,
      "sz": 6111,
      "SUCCESS": 6112,
      ")](": 6113,
      "Ġchildren": 6114,
      "INTER": 6115,
      "thumb": 6116,
      "Mask": 6117,
      "Duration": 6118,
      "ĠOptional": 6119,
      "person": 6120,
      ";&#": 6121,
      "compare": 6122,
      "Ġvia": 6123,
      "ĠNe": 6124,
      "agnost": 6125,
      "Ġbelow": 6126,
      "Day": 6127,
      "sidebar": 6128,
      "road": 6129,
      "clone": 6130,
      "PIO": 6131,
      "localhost": 6132,
      "ĠØ": 6133,
      "ĠIOException": 6134,
      "Ġvalidate": 6135,
      "ragma": 6136,
      "Ġsb": 6137,
      "Person": 6138,
      "duration": 6139,
      "timeout": 6140,
      "ëĵ": 6141,
      "Ġadmin": 6142,
      "anization": 6143,
      "]*": 6144,
      "ĠNS": 6145,
      "Ġcla": 6146,
      "slot": 6147,
      "¸°": 6148,
      "icip": 6149,
      "čĊčĊč": 6150,
      "gray": 6151,
      "ãģª": 6152,
      "----------": 6153,
      "pull": 6154,
      "Ġknow": 6155,
      "ÐµÐ½Ð¸": 6156,
      "AG": 6157,
      "ĠĊĠĠĠĠ": 6158,
      "ĠMem": 6159,
      "sb": 6160,
      "lider": 6161,
      "Ġsequence": 6162,
      "sq": 6163,
      "Html": 6164,
      "depth": 6165,
      "RIGHT": 6166,
      "Limit": 6167,
      "Ġday": 6168,
      "green": 6169,
      "gnore": 6170,
      "ture": 6171,
      "Material": 6172,
      "tl": 6173,
      "Ġexisting": 6174,
      "ĠTable": 6175,
      "UAL": 6176,
      "highlight": 6177,
      "2014": 6178,
      "ili": 6179,
      "embed": 6180,
      "Ġeven": 6181,
      "cogn": 6182,
      "convert": 6183,
      "ĠNote": 6184,
      "Ġ500": 6185,
      "CHAR": 6186,
      "LOW": 6187,
      "Light": 6188,
      "%%": 6189,
      "(\\": 6190,
      "ĠOutput": 6191,
      "Notification": 6192,
      "bits": 6193,
      "ifications": 6194,
      "urch": 6195,
      "bon": 6196,
      "ventory": 6197,
      "ĠÂ": 6198,
      "Ġwere": 6199,
      "voice": 6200,
      "Ġpair": 6201,
      "ato": 6202,
      "VL": 6203,
      "Ġcore": 6204,
      "UTH": 6205,
      "Region": 6206,
      ".\\": 6207,
      "èİ·": 6208,
      "ĠAS": 6209,
      "Abstract": 6210,
      "Ġmo": 6211,
      "Ġ]);": 6212,
      "Cla": 6213,
      "Ġunique": 6214,
      "999": 6215,
      "ãĥĥ": 6216,
      "hip": 6217,
      "quote": 6218,
      "Tile": 6219,
      "some": 6220,
      "åĲĮ": 6221,
      "Ġaccept": 6222,
      "Ġ45": 6223,
      "Ġcontroller": 6224,
      "Ġdu": 6225,
      "ĠExample": 6226,
      "ny": 6227,
      "=\"#\">": 6228,
      "Ġam": 6229,
      "Ġtimeout": 6230,
      "middle": 6231,
      "ggreg": 6232,
      "Ġsupported": 6233,
      "Ġreader": 6234,
      "Namespace": 6235,
      "127": 6236,
      "lint": 6237,
      "éĥ¨": 6238,
      "mc": 6239,
      "#!": 6240,
      "Cmd": 6241,
      "]->": 6242,
      "Mut": 6243,
      "**.": 6244,
      "lik": 6245,
      "cluding": 6246,
      "Renderer": 6247,
      "FIX": 6248,
      "Microsoft": 6249,
      "Ġrepository": 6250,
      "=-": 6251,
      "subject": 6252,
      "Loading": 6253,
      "lr": 6254,
      "feed": 6255,
      "Ġstructure": 6256,
      "<>();": 6257,
      "Cluster": 6258,
      "Ġsmall": 6259,
      "Ġ{},": 6260,
      "Ġ^": 6261,
      "Ġip": 6262,
      "ãĥ¼ãĤ": 6263,
      "ĠAuth": 6264,
      "chool": 6265,
      "æ²": 6266,
      "Protocol": 6267,
      "Ġnumpy": 6268,
      "MD": 6269,
      "](../": 6270,
      "Ġcannot": 6271,
      "TS": 6272,
      "mpt": 6273,
      "Ġ\"../": 6274,
      "ison": 6275,
      "ĠOb": 6276,
      "Ġsymbol": 6277,
      "Ġcomment": 6278,
      "Ġ).": 6279,
      "Program": 6280,
      "des": 6281,
      "undefined": 6282,
      "Ġimplementation": 6283,
      "Ġstrings": 6284,
      "dx": 6285,
      "ĠVis": 6286,
      "FS": 6287,
      "ãĥª": 6288,
      "ighb": 6289,
      "Ġpassed": 6290,
      "mobile": 6291,
      "VRT": 6292,
      "Ġlogin": 6293,
      "åģ": 6294,
      "Lower": 6295,
      "getValue": 6296,
      "å»º": 6297,
      "gif": 6298,
      "DEV": 6299,
      "ĠConsole": 6300,
      "ooter": 6301,
      "ĠMon": 6302,
      "[:,": 6303,
      "oll": 6304,
      "Ġ27": 6305,
      "ĊĠĠĠĠĠĠĠĠĠĠĠĠĠĠĠĠĠĠĠĠĠĠĠĠĠĠĠĠĠĠĠĠĠ": 6306,
      "includes": 6307,
      "ism": 6308,
      "Div": 6309,
      "NN": 6310,
      "Ġassociated": 6311,
      "0001": 6312,
      "configuration": 6313,
      "docker": 6314,
      "Ġzero": 6315,
      "Join": 6316,
      "getId": 6317,
      "Points": 6318,
      "moved": 6319,
      "ĠMod": 6320,
      "illa": 6321,
      "(--": 6322,
      "ë¦": 6323,
      "Azure": 6324,
      "dump": 6325,
      "atter": 6326,
      "formed": 6327,
      "nom": 6328,
      "ategor": 6329,
      "Ġč": 6330,
      "collect": 6331,
      "badge": 6332,
      "Contract": 6333,
      "servable": 6334,
      "ĠFe": 6335,
      "about": 6336,
      "Ġimages": 6337,
      "éĩı": 6338,
      "Ġpa": 6339,
      "åĮĸ": 6340,
      "ni": 6341,
      "ÑĨ": 6342,
      "ĠInc": 6343,
      "shal": 6344,
      "Should": 6345,
      "ARD": 6346,
      "tests": 6347,
      "Comment": 6348,
      "APP": 6349,
      "ĠAuthor": 6350,
      "ìĦľ": 6351,
      "clean": 6352,
      "'}": 6353,
      "slide": 6354,
      "lastic": 6355,
      "Ġfeatures": 6356,
      "force": 6357,
      "å°ı": 6358,
      "aker": 6359,
      "[-": 6360,
      "éľĢ": 6361,
      "Ġtake": 6362,
      "Ind": 6363,
      "Direction": 6364,
      "pic": 6365,
      "Pa": 6366,
      "trl": 6367,
      "Timer": 6368,
      "ini": 6369,
      "Ġ}),": 6370,
      "ysql": 6371,
      "LETE": 6372,
      "Ġcv": 6373,
      "CONFIG": 6374,
      "Resources": 6375,
      "èĢħ": 6376,
      "âĢľ": 6377,
      "cing": 6378,
      "VRTX": 6379,
      "çİ°": 6380,
      "**:": 6381,
      "cons": 6382,
      "sel": 6383,
      "rank": 6384,
      "Ġgre": 6385,
      "ANCE": 6386,
      "URI": 6387,
      "Ġplot": 6388,
      "Ġtransaction": 6389,
      "derr": 6390,
      "å°Ĩ": 6391,
      "history": 6392,
      "Short": 6393,
      "Ġscal": 6394,
      "sdk": 6395,
      "ä»¬": 6396,
      "Ġ29": 6397,
      ">`": 6398,
      "Ð¾ÑĢ": 6399,
      "Ġadditional": 6400,
      "owner": 6401,
      "ĠRoute": 6402,
      "'},": 6403,
      "Å¾": 6404,
      "dm": 6405,
      "sect": 6406,
      "ê°Ģ": 6407,
      "pear": 6408,
      "izable": 6409,
      "Ġeq": 6410,
      "Errorf": 6411,
      "lished": 6412,
      "argv": 6413,
      "uplic": 6414,
      "RED": 6415,
      "Ġclean": 6416,
      "like": 6417,
      "EventListener": 6418,
      "pay": 6419,
      "Ġotherwise": 6420,
      "assertTrue": 6421,
      "lambda": 6422,
      "ĠDescription": 6423,
      "Ġdomain": 6424,
      "ĠĠĠĠĠĠĠĠĠĠĠĠĠĠĠĠĠĠĠĠ": 6425,
      "shop": 6426,
      "duce": 6427,
      "éħį": 6428,
      "edu": 6429,
      "bp": 6430,
      "riend": 6431,
      "found": 6432,
      "uffix": 6433,
      "ulate": 6434,
      "Agent": 6435,
      "Ġdiff": 6436,
      "simple": 6437,
      "Objects": 6438,
      "Ġpush": 6439,
      "Raw": 6440,
      "orn": 6441,
      "æĽ´": 6442,
      "å§": 6443,
      "Ġdev": 6444,
      "Counter": 6445,
      "Ġcomponents": 6446,
      "Ġ'-": 6447,
      "ĠCHE": 6448,
      "indexOf": 6449,
      "ĊĊĊĠĠĠĠĠĠĠ": 6450,
      "Ġmember": 6451,
      "samples": 6452,
      "veloper": 6453,
      "sequence": 6454,
      "windows": 6455,
      "locale": 6456,
      "spot": 6457,
      "STATE": 6458,
      "Stop": 6459,
      "country": 6460,
      "pher": 6461,
      "Ġscroll": 6462,
      "ĠPost": 6463,
      "Ð±": 6464,
      "Ġmany": 6465,
      "{$": 6466,
      "Ġstrict": 6467,
      "Children": 6468,
      "Center": 6469,
      "=\"#\"": 6470,
      "achment": 6471,
      "Ġcommit": 6472,
      "ĠĠĠĠĠĠĠĠĠĠĠĠĠĠĠĠĠĠ": 6473,
      "Registry": 6474,
      "ĠOper": 6475,
      "Pub": 6476,
      "('./": 6477,
      "vlet": 6478,
      "Stats": 6479,
      "Ġdid": 6480,
      "Ġabstract": 6481,
      "gi": 6482,
      "CTYPE": 6483,
      "uuid": 6484,
      "ky": 6485,
      "ĠWhen": 6486,
      "Arr": 6487,
      "åħ³": 6488,
      "éĺ": 6489,
      "npm": 6490,
      "2015": 6491,
      "spacing": 6492,
      "cpu": 6493,
      "Ġvideo": 6494,
      "gative": 6495,
      "reader": 6496,
      "when": 6497,
      "Month": 6498,
      "emo": 6499,
      "Ġresp": 6500,
      "provider": 6501,
      "ĠSeverity": 6502,
      "ĊĉĉĠĠĠ": 6503,
      "seconds": 6504,
      "Ġcop": 6505,
      "Animation": 6506,
      "éĢī": 6507,
      "usic": 6508,
      "company": 6509,
      "ĠPython": 6510,
      "bold": 6511,
      "ORS": 6512,
      "plugins": 6513,
      "flat": 6514,
      "ĠSE": 6515,
      "Ġdat": 6516,
      "ceiver": 6517,
      "dn": 6518,
      "ino": 6519,
      "allel": 6520,
      "Ġprop": 6521,
      "\">(</": 6522,
      "ç»Ħ": 6523,
      "ANG": 6524,
      "Ġexecute": 6525,
      "stmt": 6526,
      "Car": 6527,
      "](../../": 6528,
      "emon": 6529,
      "Ġclasses": 6530,
      "respon": 6531,
      "ä»£": 6532,
      "Ġcref": 6533,
      "Ġdist": 6534,
      "Ang": 6535,
      "Basic": 6536,
      "æĮĩ": 6537,
      "fire": 6538,
      "MAP": 6539,
      "ifact": 6540,
      "indent": 6541,
      "transaction": 6542,
      "Asset": 6543,
      "Bl": 6544,
      "375": 6545,
      "Append": 6546,
      "ĠIndex": 6547,
      "inherit": 6548,
      "TRUE": 6549,
      "destroy": 6550,
      "Ġsince": 6551,
      "ĠSD": 6552,
      "coded": 6553,
      "integer": 6554,
      "awn": 6555,
      "World": 6556,
      "ivers": 6557,
      "utorial": 6558,
      "reser": 6559,
      "extension": 6560,
      "================================================================": 6561,
      "categories": 6562,
      "]=\"": 6563,
      "SB": 6564,
      "Fore": 6565,
      "covery": 6566,
      "rong": 6567,
      "Ĥ¬": 6568,
      "alytics": 6569,
      "Ùħ": 6570,
      "ASE": 6571,
      "oney": 6572,
      "Ñİ": 6573,
      "+'": 6574,
      "ì§Ģ": 6575,
      "ĠSec": 6576,
      "Help": 6577,
      "Ð¸ÑĤ": 6578,
      "resses": 6579,
      "uses": 6580,
      "-------------": 6581,
      "åŃĲ": 6582,
      "RECT": 6583,
      "ARY": 6584,
      "ĠUSE": 6585,
      "Validation": 6586,
      "Ġgenerated": 6587,
      "Clear": 6588,
      "aking": 6589,
      "ASSERT": 6590,
      "ĠMain": 6591,
      "UEST": 6592,
      "'re": 6593,
      "ĠGeneral": 6594,
      "čĊčĊĠ": 6595,
      "aciÃ³n": 6596,
      "ĠPre": 6597,
      "basic": 6598,
      "messages": 6599,
      "Ð¾Ð´": 6600,
      "ĠLogger": 6601,
      "\"+": 6602,
      "Scene": 6603,
      "Controls": 6604,
      "Depend": 6605,
      "Ġ'''": 6606,
      "Addr": 6607,
      "icode": 6608,
      "Ġoverflow": 6609,
      "\\\":": 6610,
      "Tick": 6611,
      "ĠBuild": 6612,
      "NotFound": 6613,
      "setText": 6614,
      "Ġrgb": 6615,
      "Ġtx": 6616,
      "Ġsocket": 6617,
      "lev": 6618,
      "BL": 6619,
      "groups": 6620,
      "Ġprofile": 6621,
      "protocol": 6622,
      ">\\": 6623,
      "identifier": 6624,
      "ido": 6625,
      "#[": 6626,
      "Ġterms": 6627,
      "ĠSelf": 6628,
      "lers": 6629,
      "igration": 6630,
      "cessed": 6631,
      "Ġlabels": 6632,
      "Bound": 6633,
      "Org": 6634,
      "pragma": 6635,
      "Ġarch": 6636,
      "pointer": 6637,
      "updated": 6638,
      "ĠĠĠĠĠĠĠĠĠĠĠĠĠĠĠĠĠĠĠĠĠĠĠ": 6639,
      "](/": 6640,
      "popover": 6641,
      "claration": 6642,
      "Ġsplit": 6643,
      "DOCTYPE": 6644,
      "Free": 6645,
      "Convert": 6646,
      "pn": 6647,
      "Ġactiv": 6648,
      "WI": 6649,
      "TAG": 6650,
      "Ġdoesn": 6651,
      "Ġtheme": 6652,
      "PM": 6653,
      "clus": 6654,
      "Kit": 6655,
      "Ġanother": 6656,
      "Wait": 6657,
      "Holder": 6658,
      "sf": 6659,
      "await": 6660,
      "periment": 6661,
      "Ġtypename": 6662,
      "Actions": 6663,
      "#!/": 6664,
      "Headers": 6665,
      "Messages": 6666,
      "Ã¥": 6667,
      "150": 6668,
      "Packet": 6669,
      "Span": 6670,
      "Ġalways": 6671,
      "Ġ&#": 6672,
      "cls": 6673,
      "æĦ": 6674,
      "UND": 6675,
      "TT": 6676,
      "urs": 6677,
      "Cancel": 6678,
      "MIT": 6679,
      "Ġkeep": 6680,
      "gon": 6681,
      "Validator": 6682,
      "Ġ35": 6683,
      "ìĭ": 6684,
      "ĠWork": 6685,
      "until": 6686,
      "rules": 6687,
      "incip": 6688,
      "ffffff": 6689,
      "MenuItem": 6690,
      "Elements": 6691,
      "Ġsender": 6692,
      "RESULT": 6693,
      "Export": 6694,
      "FileName": 6695,
      "COMM": 6696,
      "ĠDet": 6697,
      "ĠQuery": 6698,
      "locity": 6699,
      "ÅĻ": 6700,
      "ĠDA": 6701,
      "Ġnote": 6702,
      "rx": 6703,
      "ĠToken": 6704,
      "latest": 6705,
      "delay": 6706,
      "arge": 6707,
      "serif": 6708,
      "Ġwell": 6709,
      "ited": 6710,
      "ĠSelect": 6711,
      "power": 6712,
      "čĊĉĉĉĉĉĉ": 6713,
      "Ġwriter": 6714,
      "delta": 6715,
      "Sm": 6716,
      "resp": 6717,
      "Std": 6718,
      "Framework": 6719,
      "ĠLong": 6720,
      "Ġbl": 6721,
      "ÑĢÐ°Ð": 6722,
      "ëĭĪëĭ¤": 6723,
      "avai": 6724,
      "Submit": 6725,
      "ctions": 6726,
      "vars": 6727,
      "Ġdisabled": 6728,
      "visible": 6729,
      "Ġ}).": 6730,
      "ĠSw": 6731,
      "customer": 6732,
      "ä¾ĭ": 6733,
      "idual": 6734,
      "Ġalloc": 6735,
      "512": 6736,
      "marks": 6737,
      "Ġmean": 6738,
      "Place": 6739,
      "ÄĻ": 6740,
      "dst": 6741,
      "ç³": 6742,
      "ĠPropTypes": 6743,
      "Ġplatform": 6744,
      "ç»ĵ": 6745,
      "inf": 6746,
      "Converter": 6747,
      "Ġyield": 6748,
      "Ġresolve": 6749,
      "Character": 6750,
      "Score": 6751,
      "Mar": 6752,
      "Ġrest": 6753,
      "=</": 6754,
      "Now": 6755,
      "ĠDep": 6756,
      "MASK": 6757,
      "FL": 6758,
      "ĠFoundation": 6759,
      "Face": 6760,
      "signature": 6761,
      "Ġ\">": 6762,
      "enabled": 6763,
      "Ġ'%": 6764,
      "\">,</": 6765,
      "Ġneeded": 6766,
      "toEqual": 6767,
      "pd": 6768,
      "Ġtags": 6769,
      "Separator": 6770,
      "merge": 6771,
      ")\\": 6772,
      "ived": 6773,
      "gov": 6774,
      "Hand": 6775,
      "Idx": 6776,
      "éĻ¤": 6777,
      "Ġ/></": 6778,
      "IX": 6779,
      "Ġ----------------------------------------------------------------": 6780,
      "ases": 6781,
      "ancell": 6782,
      "Multi": 6783,
      "GEN": 6784,
      "trieve": 6785,
      "æıĲ": 6786,
      "ante": 6787,
      "ĠChange": 6788,
      "Ġenter": 6789,
      "Ġ}}\"": 6790,
      "Pass": 6791,
      "Batch": 6792,
      "Audio": 6793,
      "policy": 6794,
      "700": 6795,
      "Ġscore": 6796,
      "CONT": 6797,
      "expression": 6798,
      "Dto": 6799,
      "Ġ\"@": 6800,
      "ĠGraph": 6801,
      "upper": 6802,
      "Ġresources": 6803,
      "activity": 6804,
      "Mov": 6805,
      "SSION": 6806,
      "SCRIP": 6807,
      "ox": 6808,
      "Ġmerge": 6809,
      "arnings": 6810,
      "Ġalpha": 6811,
      "Rot": 6812,
      "'><": 6813,
      ":-": 6814,
      "å¾®": 6815,
      "ãģ¦": 6816,
      "Ġcover": 6817,
      "120": 6818,
      "Information": 6819,
      "Ġuses": 6820,
      "nc": 6821,
      "Bool": 6822,
      "canvas": 6823,
      "ĠSto": 6824,
      "ĠTE": 6825,
      "Tasks": 6826,
      "ĠDEFAULT": 6827,
      "Assign": 6828,
      "Ġeffect": 6829,
      "Ġregion": 6830,
      "Ġcod": 6831,
      "Ignore": 6832,
      "IMP": 6833,
      "Ġasset": 6834,
      "slider": 6835,
      "Il": 6836,
      "Rows": 6837,
      "icate": 6838,
      "Prop": 6839,
      "Ġstat": 6840,
      "ador": 6841,
      "cost": 6842,
      "Ġextension": 6843,
      "6666": 6844,
      "erc": 6845,
      "pin": 6846,
      "Ġein": 6847,
      "Ġonclick": 6848,
      "uce": 6849,
      "pid": 6850,
      "Ġ\"_": 6851,
      "ousel": 6852,
      "xD": 6853,
      "ike": 6854,
      "mitive": 6855,
      "',$": 6856,
      "Tags": 6857,
      "ĠDocument": 6858,
      "Ġui": 6859,
      "Inv": 6860,
      "Ġverify": 6861,
      "Binding": 6862,
      "share": 6863,
      "issues": 6864,
      "Ġdistance": 6865,
      "watch": 6866,
      "Ġdirection": 6867,
      ">';": 6868,
      "\">[": 6869,
      ")|": 6870,
      "jango": 6871,
      "getString": 6872,
      "Enable": 6873,
      "nil": 6874,
      "\"\\": 6875,
      "mas": 6876,
      "cores": 6877,
      "SUB": 6878,
      "ä½į": 6879,
      "Ġintegr": 6880,
      "OFF": 6881,
      "When": 6882,
      "æ¨¡": 6883,
      "ãĥ«": 6884,
      "Ġpermission": 6885,
      "separator": 6886,
      "Ġbound": 6887,
      "Ġ\"><": 6888,
      "åħ¶": 6889,
      "Ġms": 6890,
      "ĠWrite": 6891,
      "Ġsetting": 6892,
      "Ġ\"+": 6893,
      "ĠUtil": 6894,
      "Camera": 6895,
      "ĠApplication": 6896,
      "esome": 6897,
      "Ġ31": 6898,
      "apis": 6899,
      "ached": 6900,
      "ĠSie": 6901,
      "Su": 6902,
      "\">.</": 6903,
      "IAL": 6904,
      "alled": 6905,
      ")){": 6906,
      "ĠUN": 6907,
      "TC": 6908,
      "TF": 6909,
      "Cloud": 6910,
      "scriptor": 6911,
      "Ġdst": 6912,
      "endl": 6913,
      "ĠBE": 6914,
      "ĠAny": 6915,
      "Ġslot": 6916,
      "lapsed": 6917,
      "ĠSource": 6918,
      "Ret": 6919,
      "ĠDateTime": 6920,
      "sy": 6921,
      "oh": 6922,
      ")):": 6923,
      "Ġremote": 6924,
      "\"])": 6925,
      "Ġprev": 6926,
      "åı·": 6927,
      "ĠSk": 6928,
      "idade": 6929,
      "INCL": 6930,
      "wa": 6931,
      "Ġ90": 6932,
      "Ġcb": 6933,
      "och": 6934,
      "Ġgra": 6935,
      "mutable": 6936,
      "ĠLoad": 6937,
      "________________": 6938,
      "Insert": 6939,
      "Execution": 6940,
      "allery": 6941,
      "Ġìł": 6942,
      "Å¼": 6943,
      "fast": 6944,
      "Permission": 6945,
      ".\"\"\"": 6946,
      "Ġease": 6947,
      "contents": 6948,
      "rgb": 6949,
      "pret": 6950,
      "RAY": 6951,
      "Sim": 6952,
      "Gui": 6953,
      "Dict": 6954,
      "ĠDouble": 6955,
      "VO": 6956,
      "unwrap": 6957,
      "hicle": 6958,
      "UDING": 6959,
      "concat": 6960,
      "Throw": 6961,
      "Environment": 6962,
      "è§£": 6963,
      "çĻ": 6964,
      "atient": 6965,
      "Unknown": 6966,
      "Allow": 6967,
      "orp": 6968,
      "links": 6969,
      "atest": 6970,
      "Ġtrigger": 6971,
      "Ġchanged": 6972,
      "yp": 6973,
      "Ċĉĉĉĉĉĉĉĉĉĉĉ": 6974,
      "-.": 6975,
      "ancellation": 6976,
      "Binary": 6977,
      "Ġdisp": 6978,
      "($_": 6979,
      "ĠButton": 6980,
      "èİ·åıĸ": 6981,
      "Delegate": 6982,
      "Ġdownload": 6983,
      "Ġbook": 6984,
      "><!--": 6985,
      ")?": 6986,
      "Native": 6987,
      "`:": 6988,
      "ĠPart": 6989,
      "Ġmd": 6990,
      "ArrayList": 6991,
      "createElement": 6992,
      "absolute": 6993,
      "Ð½Ñĭ": 6994,
      "Side": 6995,
      "zh": 6996,
      "elements": 6997,
      "datetime": 6998,
      "plus": 6999,
      "_{": 7000,
      "Ġsi": 7001,
      "audio": 7002,
      "linear": 7003,
      "mutation": 7004,
      "Returns": 7005,
      "Ġrotate": 7006,
      "timer": 7007,
      "Ġskip": 7008,
      "serialize": 7009,
      "chno": 7010,
      "çĶ¨æĪ·": 7011,
      "Ð»Ð¸": 7012,
      "ĠWHERE": 7013,
      "è±": 7014,
      "gp": 7015,
      "Ġcontaining": 7016,
      "vertical": 7017,
      "Ġgot": 7018,
      "Ġmonth": 7019,
      "news": 7020,
      "literal": 7021,
      "AF": 7022,
      "textarea": 7023,
      "ĠASSERT": 7024,
      "Ġĉ": 7025,
      "ilar": 7026,
      "-----": 7027,
      "ä¿¡æģ¯": 7028,
      "ADER": 7029,
      "uggest": 7030,
      "hm": 7031,
      "sym": 7032,
      "å¦Ĥæŀľ": 7033,
      "Ġ00": 7034,
      "Ġdriver": 7035,
      "Optional": 7036,
      "METH": 7037,
      "ĠSimple": 7038,
      "munity": 7039,
      "Ġproblem": 7040,
      "aving": 7041,
      "åºı": 7042,
      "Shader": 7043,
      "ĠCollection": 7044,
      "Ġcorrespon": 7045,
      "æĪĸ": 7046,
      "âķ": 7047,
      "Usage": 7048,
      "Ġ\");": 7049,
      "Ġ300": 7050,
      "131": 7051,
      "payment": 7052,
      "Ġ??": 7053,
      "folio": 7054,
      "++++": 7055,
      "ãģŁ": 7056,
      "Ã¶r": 7057,
      "except": 7058,
      "æĻ": 7059,
      "Ġ|=": 7060,
      "mes": 7061,
      "Ġlos": 7062,
      "opacity": 7063,
      "YY": 7064,
      "Ġbits": 7065,
      "ifiers": 7066,
      "lim": 7067,
      "------------------------------------------------": 7068,
      "bt": 7069,
      "ãĥĹ": 7070,
      "ç³»": 7071,
      "yaml": 7072,
      "references": 7073,
      "å½ķ": 7074,
      "Ġ36": 7075,
      "Ġart": 7076,
      "iet": 7077,
      "([]": 7078,
      "é»": 7079,
      "Ġpool": 7080,
      "ìĬ¤": 7081,
      "Nullable": 7082,
      "ĊĠĠĠĠĠĠĠĠĠĠĠĠĠĠĠĠĠĠĠĠĠĠĠĠĠĠĠĠĠĠ": 7083,
      "ĠIl": 7084,
      "Ġexecution": 7085,
      "Ġenabled": 7086,
      "1234": 7087,
      "Ġ$.": 7088,
      "ĠGoogle": 7089,
      "å¹´": 7090,
      "tensor": 7091,
      "ĠAL": 7092,
      "Release": 7093,
      "illi": 7094,
      "è¿Ķ": 7095,
      "$(": 7096,
      "skip": 7097,
      "'\"": 7098,
      "Reset": 7099,
      "ensure": 7100,
      ".',": 7101,
      "168": 7102,
      "variant": 7103,
      "ĠGET": 7104,
      "Volume": 7105,
      "éĩį": 7106,
      "æ¡": 7107,
      "Ġservices": 7108,
      "ĠOrder": 7109,
      "browser": 7110,
      "ĠContent": 7111,
      "Ġ\";": 7112,
      "Ġduring": 7113,
      "}}\"": 7114,
      "ĠElement": 7115,
      "ä¹ĭ": 7116,
      "picker": 7117,
      "Pane": 7118,
      "Ġchunk": 7119,
      "Btn": 7120,
      "chunk": 7121,
      "ATCH": 7122,
      "Driver": 7123,
      "Axis": 7124,
      "lipse": 7125,
      "Power": 7126,
      "/\">": 7127,
      "exist": 7128,
      "TestCase": 7129,
      "writer": 7130,
      "ĠAD": 7131,
      "Ġsig": 7132,
      "Ġstandard": 7133,
      "Tx": 7134,
      "Ġmt": 7135,
      "ĠHelper": 7136,
      "Ali": 7137,
      "sr": 7138,
      "ĠArgument": 7139,
      "Tensor": 7140,
      "Ins": 7141,
      "Router": 7142,
      "bet": 7143,
      "´ë": 7144,
      "Ġrect": 7145,
      "ĠGroup": 7146,
      "requency": 7147,
      "under": 7148,
      "eval": 7149,
      "quires": 7150,
      "Setting": 7151,
      ">()": 7152,
      "Ġmedia": 7153,
      "Ġmaximum": 7154,
      "Ġisinstance": 7155,
      "igen": 7156,
      "Ġextract": 7157,
      "ä½ł": 7158,
      "Ġbus": 7159,
      "ç©": 7160,
      "IOException": 7161,
      "Ġduration": 7162,
      "Ġ400": 7163,
      "Ġallowed": 7164,
      "ĠLine": 7165,
      "mediate": 7166,
      "Ġfig": 7167,
      "ĠSession": 7168,
      "gradient": 7169,
      "Errors": 7170,
      "TED": 7171,
      "repo": 7172,
      "Ġtimes": 7173,
      "Ġprogress": 7174,
      "åĪ¶": 7175,
      "remote": 7176,
      "Ġendpoint": 7177,
      "Ġcounter": 7178,
      "bum": 7179,
      "strip": 7180,
      "Ġdatetime": 7181,
      "Created": 7182,
      "Ġenumer": 7183,
      "Ġstroke": 7184,
      "repository": 7185,
      "beta": 7186,
      "Border": 7187,
      "original": 7188,
      "memitem": 7189,
      ":%": 7190,
      "Quest": 7191,
      "REE": 7192,
      "âĸĪâĸĪ": 7193,
      "ĠRegister": 7194,
      "ĠVAL": 7195,
      "persist": 7196,
      "//!": 7197,
      "chan": 7198,
      "Hello": 7199,
      "redirect": 7200,
      "Ãº": 7201,
      "Ġ48": 7202,
      "Ġ.=": 7203,
      "Ġcontrib": 7204,
      "]</": 7205,
      "describe": 7206,
      "Ġpixel": 7207,
      "Contains": 7208,
      "hello": 7209,
      "structure": 7210,
      "112": 7211,
      "æ¸": 7212,
      "Ġ[{": 7213,
      "ivo": 7214,
      "------": 7215,
      "tabs": 7216,
      "ands": 7217,
      "ĠGe": 7218,
      "Ġmp": 7219,
      "Ġreceived": 7220,
      "ULAR": 7221,
      "ĠTRUE": 7222,
      "atible": 7223,
      "Ġpacket": 7224,
      "ê²": 7225,
      "Endpoint": 7226,
      "404": 7227,
      "proxy": 7228,
      "Complete": 7229,
      "æĸ¹æ³ķ": 7230,
      "ges": 7231,
      "ernet": 7232,
      "Buf": 7233,
      "åĲ¦": 7234,
      "Ġarticle": 7235,
      "Styles": 7236,
      "Ġdispatch": 7237,
      "ĠAbstract": 7238,
      "BC": 7239,
      "IMIT": 7240,
      "180": 7241,
      "Exists": 7242,
      "pred": 7243,
      "vh": 7244,
      "generated": 7245,
      "atomic": 7246,
      "rain": 7247,
      "dispatch": 7248,
      "Ġshift": 7249,
      "steps": 7250,
      "interval": 7251,
      "uman": 7252,
      "opts": 7253,
      "æŁ¥": 7254,
      "ĠNotice": 7255,
      "products": 7256,
      "Bottom": 7257,
      "Ġcontact": 7258,
      "INS": 7259,
      "_->": 7260,
      "Pixel": 7261,
      "tu": 7262,
      "LY": 7263,
      "WriteLine": 7264,
      "Ġidentifier": 7265,
      "Chain": 7266,
      "}\\": 7267,
      "design": 7268,
      "supported": 7269,
      "å¾Ĺ": 7270,
      "Ġoptim": 7271,
      "Ġcomplete": 7272,
      "(.": 7273,
      "Ġ?></": 7274,
      "Identity": 7275,
      "lon": 7276,
      "TABLE": 7277,
      "vg": 7278,
      "Ġpanel": 7279,
      "ãĥ©": 7280,
      "ĠRemove": 7281,
      "Ġvalidation": 7282,
      "Ø±": 7283,
      "Ve": 7284,
      "ĠMO": 7285,
      "Ġlight": 7286,
      "åĬŁ": 7287,
      "selection": 7288,
      "ores": 7289,
      "ARG": 7290,
      "definition": 7291,
      ".*;": 7292,
      "mesh": 7293,
      "ĠProcess": 7294,
      "Slot": 7295,
      "bucket": 7296,
      "ĠCall": 7297,
      "sizeof": 7298,
      "âĶĢâĶĢâĶĢâĶĢ": 7299,
      "ĠÐ¿ÑĢ": 7300,
      "ĠMake": 7301,
      "ĠĊĠĠĠĠĠĠĠĠĠĠĠĠĠĠĠ": 7302,
      "uario": 7303,
      "more": 7304,
      "ĠCONTR": 7305,
      "Ġincluded": 7306,
      "æľº": 7307,
      "ĠMIT": 7308,
      "eries": 7309,
      "tooltip": 7310,
      "high": 7311,
      "Implement": 7312,
      "ko": 7313,
      "maps": 7314,
      "Ġsur": 7315,
      "seed": 7316,
      "ãģĵ": 7317,
      "COUNT": 7318,
      "Ġweight": 7319,
      "ĠProduct": 7320,
      "ora": 7321,
      "big": 7322,
      "inputs": 7323,
      "Processor": 7324,
      "scene": 7325,
      "æľį": 7326,
      "URCE": 7327,
      "ming": 7328,
      "sha": 7329,
      "course": 7330,
      "poly": 7331,
      "WIN": 7332,
      "ki": 7333,
      "POSE": 7334,
      "Ġmaterial": 7335,
      "Emp": 7336,
      "Ġà®": 7337,
      "CALL": 7338,
      "ulator": 7339,
      "Upload": 7340,
      "Segment": 7341,
      "decoration": 7342,
      "Ġaut": 7343,
      "RC": 7344,
      "ĠLocal": 7345,
      "ev": 7346,
      "idad": 7347,
      "atalog": 7348,
      "ĠBit": 7349,
      "*(": 7350,
      "èĬ": 7351,
      "Ġinc": 7352,
      "scan": 7353,
      "Ġinitialize": 7354,
      "ĠController": 7355,
      "Ġrec": 7356,
      "ĠassertThat": 7357,
      "placeholder": 7358,
      "Big": 7359,
      "è±¡": 7360,
      "æ¬¡": 7361,
      "ĠRuntime": 7362,
      "ìľ": 7363,
      "ĠHow": 7364,
      "Rest": 7365,
      "cancel": 7366,
      "imated": 7367,
      "Ġhis": 7368,
      "ĠÑĤ": 7369,
      "NESS": 7370,
      "scala": 7371,
      "caption": 7372,
      "Operator": 7373,
      "andidate": 7374,
      "viewport": 7375,
      "stringify": 7376,
      "Ġtermin": 7377,
      "='#": 7378,
      "Ġeditor": 7379,
      "sing": 7380,
      "ĠGets": 7381,
      "Ġ---": 7382,
      "getInstance": 7383,
      "ĠEntity": 7384,
      "ĠGNU": 7385,
      "Cho": 7386,
      "Ġcontents": 7387,
      "Ġ##": 7388,
      "ĠIMP": 7389,
      "ĠCan": 7390,
      "Term": 7391,
      "Ġexternal": 7392,
      "ĠDatabase": 7393,
      "ente": 7394,
      "kg": 7395,
      "ĠSearch": 7396,
      "Decimal": 7397,
      "Direct": 7398,
      "ARK": 7399,
      "Ð¾Ð¼": 7400,
      "kernel": 7401,
      "Pred": 7402,
      "distance": 7403,
      "Rec": 7404,
      "ĠVec": 7405,
      "ĠMock": 7406,
      "ĠFALSE": 7407,
      "ever": 7408,
      "ĠDelete": 7409,
      "Ġloss": 7410,
      ",,": 7411,
      "Ġreason": 7412,
      "actual": 7413,
      "ĠMed": 7414,
      "ĠProperty": 7415,
      "ARTIC": 7416,
      "çķ": 7417,
      "crumb": 7418,
      "chn": 7419,
      "å¹¶": 7420,
      "subscribe": 7421,
      "ond": 7422,
      "Ġprovider": 7423,
      "Ġ\"${": 7424,
      "effect": 7425,
      "sem": 7426,
      "figure": 7427,
      "ood": 7428,
      "ampa": 7429,
      "Ġincluding": 7430,
      "è°ĥ": 7431,
      "Connect": 7432,
      "proc": 7433,
      "secret": 7434,
      "Ġ`${": 7435,
      "Annotation": 7436,
      "ìļ©": 7437,
      "Ġautomatic": 7438,
      "IBUT": 7439,
      "slug": 7440,
      "Acc": 7441,
      "Columns": 7442,
      "Ġles": 7443,
      "@@": 7444,
      "Ã¼r": 7445,
      "InputStream": 7446,
      "Ġ/><": 7447,
      "metric": 7448,
      "čĊĠĠĠĠĠĠĠĠĠĠĠĠĠĠĠĠĠĠĠĠĠĠĠĠĠĠĠĠĠĠĠ": 7449,
      "asm": 7450,
      "============": 7451,
      "ÙĨ": 7452,
      "ography": 7453,
      "Timestamp": 7454,
      "emit": 7455,
      "VAR": 7456,
      "Ð¹": 7457,
      "EVENT": 7458,
      "aybe": 7459,
      "reply": 7460,
      "hex": 7461,
      "ĠGlobal": 7462,
      "ĠLIC": 7463,
      "Ġ./": 7464,
      "Owner": 7465,
      "Ġneeds": 7466,
      "sin": 7467,
      "Ġbad": 7468,
      "Weight": 7469,
      "Theme": 7470,
      "Ġ\")": 7471,
      "deep": 7472,
      "Accept": 7473,
      "factor": 7474,
      "ĠCH": 7475,
      "operation": 7476,
      "æ³¨": 7477,
      ":{": 7478,
      "Instruction": 7479,
      "Fix": 7480,
      "æĥħ": 7481,
      "ĠGit": 7482,
      ")',": 7483,
      "2000": 7484,
      "ĠUnit": 7485,
      "Ġ___": 7486,
      "verify": 7487,
      "Ġpull": 7488,
      "fixed": 7489,
      "Ġkernel": 7490,
      "Ġlater": 7491,
      "ĠSpec": 7492,
      "ifies": 7493,
      "Ġgit": 7494,
      "patch": 7495,
      "cpy": 7496,
      "111": 7497,
      "ida": 7498,
      "ĠBuffer": 7499,
      "Ġtimestamp": 7500,
      "éľĢè¦ģ": 7501,
      "Ġ38": 7502,
      "Ġseg": 7503,
      "amage": 7504,
      "ĠÃł": 7505,
      "Å¡": 7506,
      "_)": 7507,
      "FOR": 7508,
      "Ġpublish": 7509,
      "available": 7510,
      "åħ¨": 7511,
      "Ġactions": 7512,
      "ruby": 7513,
      "Zone": 7514,
      "poch": 7515,
      ".\")": 7516,
      "Controllers": 7517,
      "direct": 7518,
      "Ġmeans": 7519,
      "getMessage": 7520,
      "valuate": 7521,
      "-------": 7522,
      "ĠâĶĤ": 7523,
      "Ġarea": 7524,
      "ysical": 7525,
      "mu": 7526,
      "how": 7527,
      "Ġcharacters": 7528,
      "panded": 7529,
      "Ġopts": 7530,
      "ĠSerial": 7531,
      "Compar": 7532,
      "logging": 7533,
      "CLASS": 7534,
      "ulk": 7535,
      "Ġ33": 7536,
      "Ãµ": 7537,
      "uda": 7538,
      "tection": 7539,
      "ĠSupport": 7540,
      "Ġlib": 7541,
      "Where": 7542,
      "rial": 7543,
      "Servlet": 7544,
      "branch": 7545,
      "learn": 7546,
      "ills": 7547,
      "Ġthose": 7548,
      "ĠConvert": 7549,
      "Ġqual": 7550,
      "KEN": 7551,
      "ĠLIMIT": 7552,
      "Ġtile": 7553,
      "lyphicon": 7554,
      "lies": 7555,
      "stand": 7556,
      "Period": 7557,
      "resize": 7558,
      "Constructor": 7559,
      "EQUAL": 7560,
      "Speed": 7561,
      "CHAN": 7562,
      "anchor": 7563,
      "Cursor": 7564,
      "ĠÑ": 7565,
      "Ġstill": 7566,
      "Serializer": 7567,
      "Bits": 7568,
      "æĶ¹": 7569,
      "Ent": 7570,
      "ĠDec": 7571,
      "*,": 7572,
      "Ġissue": 7573,
      "Ġrules": 7574,
      "volume": 7575,
      "Ġanimation": 7576,
      "Loop": 7577,
      "ampaign": 7578,
      "Groups": 7579,
      "å®¹": 7580,
      "Ġseconds": 7581,
      "ATTR": 7582,
      "ĠReg": 7583,
      "è¾ĵ": 7584,
      "mg": 7585,
      "eff": 7586,
      "dirname": 7587,
      "\\_": 7588,
      "alog": 7589,
      "Ġdialog": 7590,
      "ali": 7591,
      "cker": 7592,
      "ises": 7593,
      "ĠOUT": 7594,
      "Ġ34": 7595,
      "Ġgoto": 7596,
      "ceed": 7597,
      "çĥ": 7598,
      "Ġmade": 7599,
      "ellow": 7600,
      "Head": 7601,
      "Ġmight": 7602,
      "ĠContext": 7603,
      "ÐµÐ¼": 7604,
      "ĠFind": 7605,
      "ĠĊĠĠĠĠĠ": 7606,
      "AST": 7607,
      "Make": 7608,
      "ä¹Ł": 7609,
      "Ġsets": 7610,
      "=\"./": 7611,
      "ÅĽ": 7612,
      "readcrumb": 7613,
      "ĠON": 7614,
      "vk": 7615,
      "confirm": 7616,
      "Ġtransparent": 7617,
      "UST": 7618,
      "ĠOk": 7619,
      "ê³ł": 7620,
      "Ġupper": 7621,
      "ĠXML": 7622,
      "Ġdelta": 7623,
      "ĠLICENSE": 7624,
      "setState": 7625,
      "Ġdig": 7626,
      "ĊĉĉĠ": 7627,
      "Expected": 7628,
      "Site": 7629,
      "Ġë°": 7630,
      ")+": 7631,
      "'></": 7632,
      "Ġhad": 7633,
      "amaz": 7634,
      "animation": 7635,
      "Dictionary": 7636,
      "Ġwritten": 7637,
      "dashboard": 7638,
      "ĊĊĉĉĉĉ": 7639,
      "iece": 7640,
      "Ġcommands": 7641,
      "çĽ¸": 7642,
      "Alert": 7643,
      "Ġ128": 7644,
      "Ġcy": 7645,
      "olved": 7646,
      "yes": 7647,
      "redit": 7648,
      "Ġspecify": 7649,
      "Visual": 7650,
      "ĊĉĉĉĊĉĉ": 7651,
      "Fixed": 7652,
      "agram": 7653,
      "LOAD": 7654,
      "mis": 7655,
      "Ġinstruction": 7656,
      "Distance": 7657,
      "Ġrep": 7658,
      "234": 7659,
      "ĠJS": 7660,
      "Ġwho": 7661,
      "Ġtoo": 7662,
      "Gra": 7663,
      ">:": 7664,
      "Ġts": 7665,
      "Ġuna": 7666,
      "endpoint": 7667,
      "()[": 7668,
      "extra": 7669,
      "radient": 7670,
      "Ġkind": 7671,
      "ĠSign": 7672,
      "~~~~~~~~": 7673,
      "Ġengine": 7674,
      "ACK": 7675,
      "iones": 7676,
      "Ġdistribution": 7677,
      "Bounds": 7678,
      "ĠĠĠĠĠĠĠĠĠĠĠĠĠĠĠĠĠĠĠĠĠ": 7679,
      "NG": 7680,
      "vl": 7681,
      "äºĭ": 7682,
      "tre": 7683,
      "Ġprob": 7684,
      "generator": 7685,
      "START": 7686,
      "*-": 7687,
      "Sheet": 7688,
      "pow": 7689,
      "Ġowner": 7690,
      "special": 7691,
      "Plan": 7692,
      "ardware": 7693,
      "Ġteam": 7694,
      "cnt": 7695,
      "ĠChar": 7696,
      "0002": 7697,
      "Ġremoved": 7698,
      "ĠCLA": 7699,
      "ĠÐ¼": 7700,
      "Remote": 7701,
      "Phone": 7702,
      "ASH": 7703,
      "CHANT": 7704,
      "\"/": 7705,
      "Ġ42": 7706,
      "Ä±n": 7707,
      "Ġpower": 7708,
      "FB": 7709,
      "ĠThread": 7710,
      "(((": 7711,
      "509": 7712,
      "two": 7713,
      "å§ĭ": 7714,
      "ä¸»": 7715,
      "Ġlower": 7716,
      "className": 7717,
      "Ġnn": 7718,
      "arguments": 7719,
      "inu": 7720,
      "Library": 7721,
      "Ġ75": 7722,
      "ĠPH": 7723,
      "mach": 7724,
      "Alloc": 7725,
      "ĠMAX": 7726,
      "Ġgood": 7727,
      "æ±Ĥ": 7728,
      "ĠShow": 7729,
      "ä»ĸ": 7730,
      "mag": 7731,
      "cert": 7732,
      "Strip": 7733,
      "dy": 7734,
      "Ġ99": 7735,
      "ĠBY": 7736,
      "methods": 7737,
      "Disp": 7738,
      "continue": 7739,
      "'):": 7740,
      "Components": 7741,
      "here": 7742,
      "Ġnecess": 7743,
      "Ġìķ": 7744,
      "fficient": 7745,
      "Ġloading": 7746,
      "mn": 7747,
      "ĠLay": 7748,
      "ĠHashMap": 7749,
      "metrics": 7750,
      "Zero": 7751,
      "Ġselection": 7752,
      "Ġuntil": 7753,
      "Ġlat": 7754,
      "Ġlinear": 7755,
      "è®¾ç½®": 7756,
      "oggle": 7757,
      "cols": 7758,
      "Ġextra": 7759,
      "Ġbasic": 7760,
      "ERCHANT": 7761,
      "Begin": 7762,
      "minecraft": 7763,
      "pell": 7764,
      "Ġ37": 7765,
      "navigation": 7766,
      "Series": 7767,
      "Ġmath": 7768,
      "Ġdepth": 7769,
      "uel": 7770,
      "é¢ĺ": 7771,
      "amma": 7772,
      "ĠBUT": 7773,
      "Ġ!!": 7774,
      "URPOSE": 7775,
      "210": 7776,
      "\">=</": 7777,
      "accept": 7778,
      "Ġetc": 7779,
      "Strategy": 7780,
      "Ġãĥ": 7781,
      "LIED": 7782,
      "Fn": 7783,
      "querySelector": 7784,
      "Payment": 7785,
      "pixel": 7786,
      "Ġ>>>": 7787,
      "kk": 7788,
      "ê¸°": 7789,
      "goto": 7790,
      "Ġpur": 7791,
      "asp": 7792,
      "Dispatch": 7793,
      "Blue": 7794,
      "è¿ĶåĽŀ": 7795,
      "members": 7796,
      "Ġrespon": 7797,
      "Ġsaved": 7798,
      "ityEngine": 7799,
      "More": 7800,
      "éļ": 7801,
      "`)": 7802,
      "MSG": 7803,
      "gal": 7804,
      "Ġprice": 7805,
      "extend": 7806,
      "posts": 7807,
      "PD": 7808,
      "bas": 7809,
      "::$": 7810,
      "ãĤ¢": 7811,
      "æĹ¶éĹ´": 7812,
      "íķ´": 7813,
      "INK": 7814,
      "une": 7815,
      "social": 7816,
      "gz": 7817,
      "since": 7818,
      "Platform": 7819,
      "250": 7820,
      "alias": 7821,
      "PG": 7822,
      "fluid": 7823,
      "Ġprotocol": 7824,
      "IDTH": 7825,
      "REQUEST": 7826,
      "MEM": 7827,
      "Resolver": 7828,
      "Ġsomething": 7829,
      "#####": 7830,
      "Ġ\"\")": 7831,
      "vendor": 7832,
      "weet": 7833,
      "Ġinterval": 7834,
      "Ġrate": 7835,
      "Ġrepo": 7836,
      "Aut": 7837,
      "nail": 7838,
      "UUID": 7839,
      "è®¤": 7840,
      "park": 7841,
      "Ġlow": 7842,
      "SW": 7843,
      "Activ": 7844,
      "Ġemp": 7845,
      "DEX": 7846,
      "çľĭ": 7847,
      "ITNESS": 7848,
      "Shared": 7849,
      "ãĢĢ": 7850,
      "Room": 7851,
      "xref": 7852,
      "tv": 7853,
      "ĠControl": 7854,
      "Setup": 7855,
      "âĢĶ": 7856,
      "åĮħ": 7857,
      "Private": 7858,
      "ç±»åŀĭ": 7859,
      "é¡µ": 7860,
      "Some": 7861,
      "sender": 7862,
      "Ġinputs": 7863,
      "Ġstored": 7864,
      "Ġless": 7865,
      "Src": 7866,
      "Ġinherit": 7867,
      "ĠFrame": 7868,
      "ĠParameters": 7869,
      "](./": 7870,
      "ArgumentException": 7871,
      "publish": 7872,
      "atable": 7873,
      "lette": 7874,
      "ĠÐ·": 7875,
      "Ġ70": 7876,
      "ensity": 7877,
      "AAAA": 7878,
      "å¸¸": 7879,
      "enario": 7880,
      "munic": 7881,
      "Fill": 7882,
      "Console": 7883,
      "^^^^": 7884,
      "Ġsolution": 7885,
      "Extensions": 7886,
      "Ġorigin": 7887,
      "pit": 7888,
      "Ġcross": 7889,
      "ĠEng": 7890,
      "Ġreject": 7891,
      "sleep": 7892,
      "Please": 7893,
      "Ġproto": 7894,
      "Enumerable": 7895,
      "SSAGE": 7896,
      "TL": 7897,
      "udit": 7898,
      "bat": 7899,
      "maz": 7900,
      "external": 7901,
      "Img": 7902,
      "speed": 7903,
      "Install": 7904,
      "projects": 7905,
      "Ġvm": 7906,
      "ĠInstall": 7907,
      "Download": 7908,
      "FLAG": 7909,
      "Ġchain": 7910,
      "mitted": 7911,
      "FIL": 7912,
      "éĥ½": 7913,
      "ĠBig": 7914,
      "ĠPURPOSE": 7915,
      "II": 7916,
      "Illuminate": 7917,
      "ERCHANTABILITY": 7918,
      "ä½ĵ": 7919,
      "initialize": 7920,
      "Split": 7921,
      "Äĩ": 7922,
      "Ġcompute": 7923,
      "linux": 7924,
      "ĠPARTIC": 7925,
      "Ġ'_": 7926,
      "ÙĪ": 7927,
      "ç¬¬": 7928,
      "TX": 7929,
      "amazon": 7930,
      "writ": 7931,
      "libs": 7932,
      "Cl": 7933,
      "'+": 7934,
      "Ġvo": 7935,
      "Ip": 7936,
      "Lat": 7937,
      "Chat": 7938,
      "abilities": 7939,
      "æĺİ": 7940,
      "DULE": 7941,
      "Many": 7942,
      "Execute": 7943,
      "ĠInvalid": 7944,
      "abc": 7945,
      "å·¥": 7946,
      "Ġwidget": 7947,
      "INVALID": 7948,
      "jet": 7949,
      "Inst": 7950,
      "Promise": 7951,
      "å¢": 7952,
      "ivery": 7953,
      "éĤ": 7954,
      "WAR": 7955,
      "mq": 7956,
      "Team": 7957,
      "Ġvery": 7958,
      "got": 7959,
      "Mo": 7960,
      "hw": 7961,
      "Ġbold": 7962,
      "malink": 7963,
      "`;": 7964,
      "ELD": 7965,
      "Ġmanager": 7966,
      "Collect": 7967,
      "Ġptr": 7968,
      "Ġdisable": 7969,
      "ç¬¦": 7970,
      "Anchor": 7971,
      "Ġut": 7972,
      "norm": 7973,
      "ĠCSS": 7974,
      "ĠCHECK": 7975,
      "refresh": 7976,
      "Ġfun": 7977,
      "ĠPri": 7978,
      "Ġjoin": 7979,
      "Radius": 7980,
      "FFER": 7981,
      "Ġplease": 7982,
      "erature": 7983,
      "ÐµÐ»": 7984,
      "[(": 7985,
      "Ġed": 7986,
      "iny": 7987,
      "Tools": 7988,
      "Ġcurrently": 7989,
      "allen": 7990,
      "æĵ": 7991,
      "COLOR": 7992,
      "afe": 7993,
      "Ġwrap": 7994,
      "failed": 7995,
      "DTO": 7996,
      "Ġmac": 7997,
      "ĠPARTICULAR": 7998,
      "åĮº": 7999,
      "cheme": 8000,
      "ENCE": 8001,
      "Ġprimary": 8002,
      "seg": 8003,
      "NA": 8004,
      "230": 8005,
      "'=>$": 8006,
      "segment": 8007,
      "XXXX": 8008,
      "Ġwrapper": 8009,
      "ano": 8010,
      "ĠâĢľ": 8011,
      "Ġhome": 8012,
      "NC": 8013,
      "DT": 8014,
      "Ġlistener": 8015,
      "Ġtokens": 8016,
      "čĊĉčĊ": 8017,
      "ĊĠĠĠĠĠĠĠĠĠĠĠĠĠĠĠĠĠĠĠĠĠĠĠĠĠĠĠĠĠĠĠĠĠĠĠĠĠ": 8018,
      "éĹ®": 8019,
      "Ġmissing": 8020,
      "TOP": 8021,
      "setting": 8022,
      "BYTE": 8023,
      "CONST": 8024,
      "avatar": 8025,
      "defer": 8026,
      "ìĸ": 8027,
      "Ġendl": 8028,
      "TRY": 8029,
      "reet": 8030,
      "ĠMax": 8031,
      "ĠConfiguration": 8032,
      "aves": 8033,
      "Ġsans": 8034,
      "æŃ¤": 8035,
      "afka": 8036,
      "chr": 8037,
      "Ġdestination": 8038,
      "colors": 8039,
      "Ġhapp": 8040,
      "Gr": 8041,
      "keywords": 8042,
      "132": 8043,
      "ĠStream": 8044,
      "Linq": 8045,
      "çĦ": 8046,
      "functions": 8047,
      "Ġ39": 8048,
      "Chunk": 8049,
      "Ġpt": 8050,
      "åķ": 8051,
      "PARAM": 8052,
      "Ġpor": 8053,
      "ĠMERCHANTABILITY": 8054,
      "elem": 8055,
      "è®¡": 8056,
      "Ġho": 8057,
      "Ġencoding": 8058,
      "fas": 8059,
      ">\";": 8060,
      "ĠModule": 8061,
      "ĠĠĠĠĠĠĠĠĠĠĠĠĠĠĠĠĠĠĠĠĠĠ": 8062,
      "è¯¥": 8063,
      "webpack": 8064,
      "Ġ09": 8065,
      "currency": 8066,
      "ĠDebug": 8067,
      "Ġê²": 8068,
      "Äį": 8069,
      "Ġ\"[": 8070,
      "fun": 8071,
      "vp": 8072,
      "}},": 8073,
      "Self": 8074,
      "mutex": 8075,
      "disp": 8076,
      "orth": 8077,
      "PF": 8078,
      "cape": 8079,
      "ë¦¬": 8080,
      "Ġrc": 8081,
      "Ġforward": 8082,
      "frames": 8083,
      "è£": 8084,
      "brand": 8085,
      "MC": 8086,
      "multi": 8087,
      "Customer": 8088,
      "003": 8089,
      "viders": 8090,
      "Payload": 8091,
      "Focus": 8092,
      "regex": 8093,
      "mx": 8094,
      "Arch": 8095,
      "Ġdescri": 8096,
      "forward": 8097,
      "Ġcert": 8098,
      "FFF": 8099,
      "NONE": 8100,
      "ubernet": 8101,
      "FUNCTION": 8102,
      "ĠTool": 8103,
      "sWith": 8104,
      "IZ": 8105,
      "Ġ[-": 8106,
      "ĠFilter": 8107,
      "Ġallows": 8108,
      "vet": 8109,
      "']))": 8110,
      "percent": 8111,
      "tempt": 8112,
      "ubernetes": 8113,
      "Ġ'')": 8114,
      "Ġcome": 8115,
      "_);": 8116,
      "fonts": 8117,
      "Ġnumbers": 8118,
      "IA": 8119,
      "ract": 8120,
      "irr": 8121,
      "Trigger": 8122,
      "\\.": 8123,
      "aven": 8124,
      "}'": 8125,
      "Ġutf": 8126,
      "åĪĻ": 8127,
      "large": 8128,
      "decl": 8129,
      "dw": 8130,
      "ĠCOP": 8131,
      "refs": 8132,
      "]).": 8133,
      "outline": 8134,
      "ĠDAMAGE": 8135,
      "GIN": 8136,
      "IME": 8137,
      "NING": 8138,
      "ctrl": 8139,
      "elcome": 8140,
      "perience": 8141,
      "forms": 8142,
      "relative": 8143,
      "ä¿Ŀ": 8144,
      "pring": 8145,
      "ĠHREF": 8146,
      "tar": 8147,
      "ìķ": 8148,
      "ìĿĢ": 8149,
      "ç¡": 8150,
      "Switch": 8151,
      "Seconds": 8152,
      "ĠUINT": 8153,
      "incipal": 8154,
      "stage": 8155,
      "examples": 8156,
      "fav": 8157,
      "ĠBack": 8158,
      "ĠCore": 8159,
      "endregion": 8160,
      "mult": 8161,
      "ĠĠĠĠĠĠĠĠĠĠĠĠĠĠĠĠĠĠĠĠĠĠĠĠ": 8162,
      "EB": 8163,
      "Transfer": 8164,
      "ĉĉĉĉĉ": 8165,
      "104": 8166,
      "Ġbot": 8167,
      "actor": 8168,
      "Ġ\":": 8169,
      "constraint": 8170,
      "FALSE": 8171,
      "åıĤæķ°": 8172,
      "220": 8173,
      "æľįåĬ¡": 8174,
      "ips": 8175,
      "Ġcs": 8176,
      "æ°": 8177,
      "ĠMin": 8178,
      "Diff": 8179,
      "Factor": 8180,
      "notification": 8181,
      "series": 8182,
      "åįļ": 8183,
      "å·²": 8184,
      "æ¶": 8185,
      "RET": 8186,
      "ology": 8187,
      "Username": 8188,
      "backend": 8189,
      "HashMap": 8190,
      "agraph": 8191,
      "æº": 8192,
      "awt": 8193,
      "Ġaddr": 8194,
      "roadcast": 8195,
      "ducer": 8196,
      "ĠÎ": 8197,
      "once": 8198,
      "mid": 8199,
      "StackTrace": 8200,
      "priv": 8201,
      "Ġsepar": 8202,
      "sur": 8203,
      "compile": 8204,
      "ĊĠĠĠĠĠĠĠĠĠĠĠĠĠĠĠĠĠĠĠĠĠĠĠĠĠĠĠĠĠĠĠĠĠĠĠĠ": 8205,
      "ssl": 8206,
      "ĠFree": 8207,
      "ÑĪ": 8208,
      "æĪĳä»¬": 8209,
      "Ġinside": 8210,
      "è¢": 8211,
      "hot": 8212,
      "Ġtesting": 8213,
      "Replace": 8214,
      "Dynamic": 8215,
      "Ġblue": 8216,
      "Encoding": 8217,
      "GRO": 8218,
      "ĠGrid": 8219,
      "Ok": 8220,
      "ç®¡": 8221,
      "æĹł": 8222,
      "selector": 8223,
      "expand": 8224,
      "Ð¾ÑĤ": 8225,
      "isk": 8226,
      "photo": 8227,
      "ien": 8228,
      "fw": 8229,
      "Ġpolicy": 8230,
      "/.": 8231,
      "Ġshared": 8232,
      "__)": 8233,
      "xxxx": 8234,
      ">=": 8235,
      "íĬ": 8236,
      "Ġcost": 8237,
      "Ġusage": 8238,
      "compute": 8239,
      "ĠCOPY": 8240,
      "Snapshot": 8241,
      "ĠÄĳ": 8242,
      "Ġvariant": 8243,
      "116": 8244,
      "Ã¨": 8245,
      "CTRL": 8246,
      "floor": 8247,
      "EP": 8248,
      "Ġvisit": 8249,
      "Push": 8250,
      "ĠSTR": 8251,
      "ĠFITNESS": 8252,
      "stderr": 8253,
      "224": 8254,
      "Ġsegment": 8255,
      "ĠMark": 8256,
      "IFT": 8257,
      "æĢģ": 8258,
      "anc": 8259,
      "Ġher": 8260,
      "aÃ§Ã£o": 8261,
      "sess": 8262,
      "ÄĽ": 8263,
      "ãģ¾ãģĻ": 8264,
      "Graphics": 8265,
      "Ġturn": 8266,
      "innerHTML": 8267,
      "ĊĉĠĠĠĠĠĠĠ": 8268,
      "Ġroom": 8269,
      "sters": 8270,
      "Ġupload": 8271,
      "Ġremain": 8272,
      "ĠDisplay": 8273,
      "ĠSte": 8274,
      "Rep": 8275,
      "ancellationToken": 8276,
      "Ã©s": 8277,
      "FAIL": 8278,
      "hu": 8279,
      "ya": 8280,
      "Ġentries": 8281,
      "æľŁ": 8282,
      "Subject": 8283,
      "sTo": 8284,
      "čĊĉĉĉĉĉĉĉ": 8285,
      "Own": 8286,
      "Failure": 8287,
      "Standard": 8288,
      "SOURCE": 8289,
      "La": 8290,
      "Ð½Ð¾": 8291,
      "åŃ¦": 8292,
      "ĠAddress": 8293,
      "UX": 8294,
      "++){": 8295,
      "ĠCG": 8296,
      "coming": 8297,
      "valueOf": 8298,
      "ĊĠĠĠĠĠĠĠĠĠĠĠĠĠĠĠĠĠĠĠĠĠĠĠĠĠĠĠĠĠĠĠĠĠĠ": 8299,
      "ised": 8300,
      "åıª": 8301,
      "ĠLanguage": 8302,
      "}{": 8303,
      "strings": 8304,
      "addEventListener": 8305,
      "CLI": 8306,
      ";\"><": 8307,
      "Ġfactory": 8308,
      "optim": 8309,
      "dividual": 8310,
      "SERVER": 8311,
      "Ġsorted": 8312,
      "Secret": 8313,
      "NODE": 8314,
      "æŃ£": 8315,
      "agg": 8316,
      "UDE": 8317,
      "otor": 8318,
      "ively": 8319,
      "tokens": 8320,
      "channels": 8321,
      "Ġdesign": 8322,
      "bank": 8323,
      "GTH": 8324,
      "filters": 8325,
      "Ġ'</": 8326,
      "å¤Ħ": 8327,
      "Ġtimer": 8328,
      "Summary": 8329,
      "ĠHandle": 8330,
      "tb": 8331,
      "çŃī": 8332,
      "ĠWith": 8333,
      "formance": 8334,
      "Ġsz": 8335,
      "'][": 8336,
      "Feed": 8337,
      "Ġuseful": 8338,
      "best": 8339,
      "Øª": 8340,
      "quo": 8341,
      "locfile": 8342,
      "Mac": 8343,
      "ViewController": 8344,
      "Signature": 8345,
      "extract": 8346,
      "FORMAT": 8347,
      "mous": 8348,
      "SourceFile": 8349,
      "Ġbin": 8350,
      "ĠIter": 8351,
      "nl": 8352,
      "................": 8353,
      "Exit": 8354,
      "|(": 8355,
      "109": 8356,
      "ims": 8357,
      "Ġsteps": 8358,
      "Ġperiod": 8359,
      "questions": 8360,
      "ëı": 8361,
      "ĠPrint": 8362,
      "ĠPort": 8363,
      "ĠNetwork": 8364,
      "__,": 8365,
      "equiv": 8366,
      "DP": 8367,
      "indices": 8368,
      "period": 8369,
      "osite": 8370,
      "Ġ[`": 8371,
      "ãģĭ": 8372,
      "105": 8373,
      "002": 8374,
      ")\">": 8375,
      "quip": 8376,
      "ĠIMPLIED": 8377,
      "urity": 8378,
      "Ġdr": 8379,
      "comments": 8380,
      "udy": 8381,
      "Ġclone": 8382,
      "notify": 8383,
      "Ġdt": 8384,
      "Exist": 8385,
      "><?": 8386,
      "Ġtraining": 8387,
      "é«": 8388,
      "ï¿": 8389,
      "/#": 8390,
      "æĶ¯": 8391,
      "ç®Ĺ": 8392,
      "coin": 8393,
      "TRAN": 8394,
      "secondary": 8395,
      "Ġmachine": 8396,
      "carousel": 8397,
      "ridge": 8398,
      "ipping": 8399,
      "Ġmouse": 8400,
      "controls": 8401,
      "Ġworking": 8402,
      "Ġinform": 8403,
      "Dao": 8404,
      "Ġproxy": 8405,
      "Ġleast": 8406,
      "mos": 8407,
      "114": 8408,
      "Methods": 8409,
      "preview": 8410,
      "ĠAss": 8411,
      "Fac": 8412,
      "MPL": 8413,
      "Ġwords": 8414,
      "warn": 8415,
      ")-": 8416,
      "scripts": 8417,
      "Bag": 8418,
      "ĠLIMITED": 8419,
      "ctl": 8420,
      "åı£": 8421,
      "LP": 8422,
      "åıĺ": 8423,
      "fab": 8424,
      "Ġtick": 8425,
      "onymous": 8426,
      "ãĤĬ": 8427,
      "Ġvisible": 8428,
      "Ġhold": 8429,
      "Ġdelay": 8430,
      "Ġrepeat": 8431,
      "Locale": 8432,
      "Ġbranch": 8433,
      "prod": 8434,
      "Syntax": 8435,
      "vanced": 8436,
      "Ĥ¨": 8437,
      "é¡¹": 8438,
      "Bad": 8439,
      "that": 8440,
      "Ġ();": 8441,
      "Threading": 8442,
      "ATOR": 8443,
      "peg": 8444,
      "eting": 8445,
      "previous": 8446,
      "108": 8447,
      "-----------": 8448,
      "schedule": 8449,
      "Ġtd": 8450,
      "Ãµes": 8451,
      "ÐµÐ´": 8452,
      "EY": 8453,
      "Ġcor": 8454,
      "ĠRef": 8455,
      "ĠUndefined": 8456,
      "Ġround": 8457,
      "epoch": 8458,
      "fm": 8459,
      "Ñī": 8460,
      "Ð¾Ð³": 8461,
      "Ġyet": 8462,
      "cheduler": 8463,
      "ç½ĳ": 8464,
      "Delay": 8465,
      "Ġcoding": 8466,
      "bine": 8467,
      "æĺ¯åĲ¦": 8468,
      "ression": 8469,
      "UInt": 8470,
      "ç©º": 8471,
      "Ġ(-": 8472,
      "binary": 8473,
      "Ġtw": 8474,
      "ç»Ł": 8475,
      "ĠìĦ": 8476,
      "Ġrouter": 8477,
      "codes": 8478,
      "camera": 8479,
      "oser": 8480,
      "shell": 8481,
      "icture": 8482,
      "Have": 8483,
      "ye": 8484,
      "anaged": 8485,
      "éĸ": 8486,
      "Ġreceive": 8487,
      "commons": 8488,
      "Authentication": 8489,
      "Ġspecial": 8490,
      "POS": 8491,
      "INST": 8492,
      "ĠTag": 8493,
      "ixin": 8494,
      "çĥŃ": 8495,
      "%\">": 8496,
      "what": 8497,
      "Picker": 8498,
      "strument": 8499,
      "Ġrhs": 8500,
      "Ġfi": 8501,
      "Ġcamera": 8502,
      "Generated": 8503,
      "commands": 8504,
      "Ġvolume": 8505,
      "irc": 8506,
      "substring": 8507,
      "entries": 8508,
      "æ·": 8509,
      "guide": 8510,
      "Wrap": 8511,
      "MODULE": 8512,
      "precated": 8513,
      "Machine": 8514,
      "Poly": 8515,
      "Ġmatches": 8516,
      "åħĥ": 8517,
      "ĠFloat": 8518,
      "VEL": 8519,
      "ĠAdmin": 8520,
      "æł¼": 8521,
      "ĊĠĠĠĠĊĠĠĠĠ": 8522,
      "banner": 8523,
      "/_": 8524,
      "ĠDictionary": 8525,
      "('../": 8526,
      "eg": 8527,
      "ATED": 8528,
      "Ġcalcul": 8529,
      "ĠCar": 8530,
      "ĠThere": 8531,
      "ĠColumn": 8532,
      "Ġcollect": 8533,
      "Ġflow": 8534,
      "vertex": 8535,
      "Ġembed": 8536,
      "tz": 8537,
      "ĠTEST": 8538,
      "ãģĹãģ¦": 8539,
      "Ġplan": 8540,
      "ä¸İ": 8541,
      "erial": 8542,
      "Ġinner": 8543,
      "Ġcalls": 8544,
      "inux": 8545,
      "Ġendif": 8546,
      "jax": 8547,
      "Ġstats": 8548,
      "lus": 8549,
      "Angle": 8550,
      "Classes": 8551,
      "Ġfinally": 8552,
      "Ġdynamic": 8553,
      "balance": 8554,
      "åł": 8555,
      "////////////////////////////////////////////////////////////////": 8556,
      "Const": 8557,
      "Encoder": 8558,
      "+=": 8559,
      "CUR": 8560,
      "384": 8561,
      "Constraints": 8562,
      "Ġ\"../../": 8563,
      "urchase": 8564,
      "Ġutils": 8565,
      "INIT": 8566,
      "è¢«": 8567,
      "paths": 8568,
      "VS": 8569,
      "Press": 8570,
      "Same": 8571,
      "éķ": 8572,
      "ryption": 8573,
      "ç¼ĸ": 8574,
      "Ġboard": 8575,
      "è¯´": 8576,
      "!\");": 8577,
      "tm": 8578,
      "trait": 8579,
      "AX": 8580,
      "Origin": 8581,
      "Literal": 8582,
      "010": 8583,
      "Ġmapping": 8584,
      "popup": 8585,
      "Topic": 8586,
      "AE": 8587,
      "Ġforce": 8588,
      "named": 8589,
      "\"];": 8590,
      "multip": 8591,
      "Ġnative": 8592,
      "Ġ$('.": 8593,
      "curr": 8594,
      "Two": 8595,
      "//----------------------------------------------------------------": 8596,
      "Ġ51": 8597,
      "Anim": 8598,
      "Present": 8599,
      "ĠURI": 8600,
      "ClassName": 8601,
      "å¯¹è±¡": 8602,
      "TERN": 8603,
      "volatile": 8604,
      "Arguments": 8605,
      "Proto": 8606,
      "oi": 8607,
      "ãģķãĤ": 8608,
      "!(\"": 8609,
      "identity": 8610,
      "ĠuseState": 8611,
      "URN": 8612,
      "Ġ*,": 8613,
      "Ġche": 8614,
      "Ġhistory": 8615,
      "ĠParse": 8616,
      "ĠApi": 8617,
      "Ġfit": 8618,
      "utors": 8619,
      "_[": 8620,
      "Ġcanvas": 8621,
      "even": 8622,
      "PACK": 8623,
      "square": 8624,
      "issue": 8625,
      "irth": 8626,
      "ĠEVENT": 8627,
      "constant": 8628,
      "Canvas": 8629,
      "FFFFFF": 8630,
      "Try": 8631,
      "Ġpartial": 8632,
      "\\'": 8633,
      "utable": 8634,
      "115": 8635,
      "åĪĽ": 8636,
      "æĦı": 8637,
      "lour": 8638,
      "Ġsn": 8639,
      "Schedule": 8640,
      "ality": 8641,
      "gers": 8642,
      "Ġtensor": 8643,
      "aring": 8644,
      "***": 8645,
      "Ctrl": 8646,
      "ĠTer": 8647,
      "medium": 8648,
      "spotify": 8649,
      "apps": 8650,
      "íĬ¸": 8651,
      "Ġcreating": 8652,
      "Ġspeed": 8653,
      "AreEqual": 8654,
      "Ġuri": 8655,
      "102": 8656,
      "zeros": 8657,
      "ĊĊĠĠĠĠĠĠĠĠĠĠĠĠĠĠĠĠĠĠĠĠĠĠĠĠĠĠĠ": 8658,
      "PASS": 8659,
      "lision": 8660,
      "shield": 8661,
      "WOR": 8662,
      "crease": 8663,
      "}\")": 8664,
      "Depth": 8665,
      "tuple": 8666,
      "xr": 8667,
      "Lines": 8668,
      "Shell": 8669,
      "helpers": 8670,
      "userId": 8671,
      "FD": 8672,
      "eners": 8673,
      "men": 8674,
      "Formatter": 8675,
      "Ã¡s": 8676,
      "tasks": 8677,
      "èĢĮ": 8678,
      "MESSAGE": 8679,
      "Ġ![": 8680,
      "into": 8681,
      "anted": 8682,
      "Ctx": 8683,
      "ĠIllegal": 8684,
      "configure": 8685,
      "Ġanswer": 8686,
      "ĠNav": 8687,
      "ë©": 8688,
      "Ġsuccessfully": 8689,
      "flash": 8690,
      "ĠEnum": 8691,
      "PY": 8692,
      "Ø¯": 8693,
      "ĠSets": 8694,
      "Mail": 8695,
      "React": 8696,
      "Ġsignal": 8697,
      "Ġpick": 8698,
      "HR": 8699,
      "Ġkw": 8700,
      "uplicate": 8701,
      "Ġprovides": 8702,
      "ĠCommon": 8703,
      "Ġzip": 8704,
      "Monitor": 8705,
      "facebook": 8706,
      "ITH": 8707,
      "IZE": 8708,
      "Dr": 8709,
      "Ġdot": 8710,
      "èĬĤ": 8711,
      "BUFFER": 8712,
      "torch": 8713,
      "ĠìĪĺ": 8714,
      "=\"-": 8715,
      "most": 8716,
      "Commit": 8717,
      "æ®": 8718,
      "ĠCloud": 8719,
      "utdown": 8720,
      "ech": 8721,
      "review": 8722,
      "stanti": 8723,
      "åĽ½": 8724,
      "ĠâĢĵ": 8725,
      "ĠìĹ": 8726,
      "Ġ120": 8727,
      "ä¹ī": 8728,
      "usage": 8729,
      "ĠErr": 8730,
      "Board": 8731,
      "matches": 8732,
      "valuation": 8733,
      "Ġma": 8734,
      "Atom": 8735,
      "Est": 8736,
      "ĠSend": 8737,
      "ãĥŃ": 8738,
      "åĩ½": 8739,
      "nx": 8740,
      "ĠActive": 8741,
      "ĠPower": 8742,
      "See": 8743,
      "prob": 8744,
      "CG": 8745,
      "ĠByte": 8746,
      "ĊĠĠĠĠĠĠĠĠĊĠĠĠ": 8747,
      "RESS": 8748,
      "\">#": 8749,
      "flush": 8750,
      "Bin": 8751,
      "XY": 8752,
      "vey": 8753,
      "Ġcancel": 8754,
      "ffers": 8755,
      "Ġtopic": 8756,
      "Dot": 8757,
      "Git": 8758,
      "Ġensure": 8759,
      "))))": 8760,
      "predict": 8761,
      "Ġconstant": 8762,
      "ĠTree": 8763,
      "æĮģ": 8764,
      "Ġfeed": 8765,
      "'ll": 8766,
      "ÛĮ": 8767,
      "Checked": 8768,
      "106": 8769,
      "Ġselector": 8770,
      "Ġcompare": 8771,
      "Geometry": 8772,
      "Cost": 8773,
      "contract": 8774,
      "Win": 8775,
      "čĊĉĉĉĉĉĉĉĉĉĉ": 8776,
      "Other": 8777,
      "scss": 8778,
      "éĩĮ": 8779,
      "[[": 8780,
      "$.": 8781,
      "Ø§ÙĦ": 8782,
      "Fetch": 8783,
      "texture": 8784,
      "éª": 8785,
      "119": 8786,
      "Song": 8787,
      "103": 8788,
      "Seq": 8789,
      "Ġstatement": 8790,
      "Ġcopies": 8791,
      "Ġchart": 8792,
      "anit": 8793,
      "touch": 8794,
      "igr": 8795,
      "ViewModel": 8796,
      "ãģĹãģ¾": 8797,
      "mbed": 8798,
      "oring": 8799,
      "124": 8800,
      "çĬ": 8801,
      "Dev": 8802,
      "hljs": 8803,
      "ads": 8804,
      "Pay": 8805,
      "apple": 8806,
      "etc": 8807,
      "Ġdtype": 8808,
      "erved": 8809,
      "Ġist": 8810,
      "Sec": 8811,
      "enchmark": 8812,
      "Ġautomatically": 8813,
      "cam": 8814,
      "General": 8815,
      "107": 8816,
      "pitest": 8817,
      "Ġtabindex": 8818,
      "ĠReference": 8819,
      "Ġtrace": 8820,
      "Ġpeople": 8821,
      "tbl": 8822,
      "ĊĊĊĠ": 8823,
      "Ġstarted": 8824,
      "('<": 8825,
      "Cpp": 8826,
      "Ġterm": 8827,
      "Warning": 8828,
      "Ġaudio": 8829,
      "agger": 8830,
      "invoke": 8831,
      "SHA": 8832,
      "ï¿½": 8833,
      "Ġ):": 8834,
      "ĠìĤ¬": 8835,
      "Ġbel": 8836,
      "éĴ": 8837,
      "Ġable": 8838,
      "Ġrelated": 8839,
      "Ġns": 8840,
      "Ġcr": 8841,
      "iltin": 8842,
      "Ġ404": 8843,
      "įä½ľ": 8844,
      "BACK": 8845,
      "pf": 8846,
      "'m": 8847,
      "...)": 8848,
      "Ġgoogle": 8849,
      "Ġmulti": 8850,
      "mutationtest": 8851,
      "Surface": 8852,
      "ationship": 8853,
      "gui": 8854,
      "clock": 8855,
      "Toggle": 8856,
      "Fatal": 8857,
      "Ġide": 8858,
      "204": 8859,
      "leaf": 8860,
      "ĠAuto": 8861,
      "Ġrequires": 8862,
      "UA": 8863,
      "TOKEN": 8864,
      "Ġoperations": 8865,
      "ĠAccess": 8866,
      "annotations": 8867,
      "Ġ[!": 8868,
      "Ġfuture": 8869,
      "Emit": 8870,
      "kn": 8871,
      "LENGTH": 8872,
      "partment": 8873,
      "144": 8874,
      "DELETE": 8875,
      "isation": 8876,
      "ĠOS": 8877,
      "Calendar": 8878,
      "ãģķãĤĮ": 8879,
      "ĠonChange": 8880,
      "integr": 8881,
      "Ġ'$": 8882,
      "bounds": 8883,
      "ç«¯": 8884,
      "NonNull": 8885,
      "Worker": 8886,
      "---------": 8887,
      "Ġvisual": 8888,
      "geo": 8889,
      "Ġ150": 8890,
      "ipher": 8891,
      "()</": 8892,
      "åĩ½æķ°": 8893,
      "Ġcout": 8894,
      "UINT": 8895,
      "signal": 8896,
      "Ġ-*-": 8897,
      "ĠOp": 8898,
      "cz": 8899,
      "\\\",": 8900,
      "çº¿": 8901,
      "processing": 8902,
      "METHOD": 8903,
      "quent": 8904,
      "ially": 8905,
      "ĠStringBuilder": 8906,
      "istr": 8907,
      "Ð°Ð½Ð¸": 8908,
      "Ġvan": 8909,
      "Ġdays": 8910,
      "Ġvertex": 8911,
      "122": 8912,
      "curs": 8913,
      "monitor": 8914,
      "Ġpod": 8915,
      "CFG": 8916,
      "Ã½": 8917,
      "Ġcurr": 8918,
      "visual": 8919,
      "fu": 8920,
      "ierarch": 8921,
      "BER": 8922,
      "Alignment": 8923,
      "ĠĠĠĠĠĠĠĠĠĠĠĠĠĠĠĠĠĠĠĠĠĠĠĠĠĠĠ": 8924,
      "é«ĺ": 8925,
      "uan": 8926,
      "packet": 8927,
      "æ²¡": 8928,
      "Ġ(((": 8929,
      "DataSource": 8930,
      "<=": 8931,
      "ĠTemplate": 8932,
      "/${": 8933,
      "Cart": 8934,
      "ÙĬ": 8935,
      "LOAT": 8936,
      "ĠSecurity": 8937,
      "blocks": 8938,
      "wj": 8939,
      "avel": 8940,
      "301": 8941,
      "unce": 8942,
      "èī": 8943,
      "RGB": 8944,
      ":\",": 8945,
      "Req": 8946,
      "Refresh": 8947,
      "atis": 8948,
      "Ġdom": 8949,
      "]}": 8950,
      "ĠLIABILITY": 8951,
      "Qual": 8952,
      "DOM": 8953,
      "days": 8954,
      "ining": 8955,
      "Ġconstraint": 8956,
      "è¶": 8957,
      "legend": 8958,
      "ĠAccount": 8959,
      "Images": 8960,
      "heel": 8961,
      "\"):": 8962,
      "%);": 8963,
      "\">)</": 8964,
      "standard": 8965,
      "Ġnothing": 8966,
      "Google": 8967,
      "para": 8968,
      "mr": 8969,
      "033": 8970,
      "Stage": 8971,
      "Ġhelper": 8972,
      "Ġlambda": 8973,
      "responsive": 8974,
      "Ġtsd": 8975,
      "Ġparsed": 8976,
      "Ġ'{": 8977,
      "AI": 8978,
      "ä¿®": 8979,
      "005": 8980,
      "à¸²": 8981,
      "ĠĊĉĉ": 8982,
      "ĠGu": 8983,
      "Ġcls": 8984,
      "encoding": 8985,
      "Ġcases": 8986,
      "Ġmag": 8987,
      "Linear": 8988,
      "entities": 8989,
      "nel": 8990,
      "|;": 8991,
      "Browser": 8992,
      "Primary": 8993,
      "addClass": 8994,
      "BD": 8995,
      "å®ī": 8996,
      "StatusCode": 8997,
      "Ġchecked": 8998,
      "geometry": 8999,
      "Authorization": 9000,
      "Ð»Ñı": 9001,
      "Ġquestion": 9002,
      "Ġdictionary": 9003,
      "nf": 9004,
      "clip": 9005,
      "156": 9006,
      "Bucket": 9007,
      "ĠPr": 9008,
      "å¿ħ": 9009,
      "Ġseed": 9010,
      "rase": 9011,
      "Bot": 9012,
      "ĠVM": 9013,
      "Ġcss": 9014,
      "Ġsync": 9015,
      "ĠCOPYRIGHT": 9016,
      "lua": 9017,
      "ĠHeader": 9018,
      "Ġcalc": 9019,
      "units": 9020,
      "Ġagent": 9021,
      "LD": 9022,
      "Iss": 9023,
      "nth": 9024,
      "Ġnavbar": 9025,
      "æł·": 9026,
      "logic": 9027,
      "Intent": 9028,
      "Ġpol": 9029,
      "ĠMar": 9030,
      "{},": 9031,
      "Ġ43": 9032,
      "ç§°": 9033,
      "White": 9034,
      "ä»İ": 9035,
      "ĠCurrent": 9036,
      "'\\": 9037,
      "Scan": 9038,
      "Ġ65": 9039,
      "calendar": 9040,
      "118": 9041,
      "Ġins": 9042,
      "packages": 9043,
      "character": 9044,
      "äºĽ": 9045,
      "utter": 9046,
      "ĠDO": 9047,
      "Ġinstalled": 9048,
      "FIELD": 9049,
      "ä¹Ī": 9050,
      "mysql": 9051,
      "Available": 9052,
      "itect": 9053,
      "vr": 9054,
      "student": 9055,
      "celer": 9056,
      "ĠStore": 9057,
      "losure": 9058,
      "ëĲ": 9059,
      "itions": 9060,
      "upt": 9061,
      "Ġsecurity": 9062,
      "è·¯": 9063,
      "constants": 9064,
      "prevent": 9065,
      "âĢĵ": 9066,
      "stroke": 9067,
      "Destroy": 9068,
      "Ġconsider": 9069,
      "aN": 9070,
      "Master": 9071,
      "Ġmuch": 9072,
      "Dig": 9073,
      "alan": 9074,
      "ViewById": 9075,
      "lookup": 9076,
      "Ġtasks": 9077,
      "ä»»": 9078,
      "éħįç½®": 9079,
      "cade": 9080,
      "}',": 9081,
      "FilePath": 9082,
      "Ġjo": 9083,
      "illis": 9084,
      "Ġdirectly": 9085,
      "ç¾": 9086,
      "ita": 9087,
      "Runner": 9088,
      "Po": 9089,
      "ĠInitialize": 9090,
      "Ġworks": 9091,
      "ving": 9092,
      "ades": 9093,
      "Guid": 9094,
      "Ġalgorithm": 9095,
      "čĊĉĉčĊĉ": 9096,
      "ostream": 9097,
      "ĠLib": 9098,
      "Ġ}}\">": 9099,
      "365": 9100,
      "Ġcontract": 9101,
      "Executor": 9102,
      "ĠPlayer": 9103,
      "ĠSize": 9104,
      "CPP": 9105,
      "antic": 9106,
      "Balance": 9107,
      "ĠPOST": 9108,
      "SHIFT": 9109,
      "PRESS": 9110,
      "Ġruntime": 9111,
      "VIDED": 9112,
      "ĊĉĠĠĠĠĠ": 9113,
      "Did": 9114,
      "ĠINCL": 9115,
      "'d": 9116,
      "house": 9117,
      "processor": 9118,
      "Ġcfg": 9119,
      "ĠRender": 9120,
      "LC": 9121,
      "å®Į": 9122,
      "ENABLE": 9123,
      "è½¬": 9124,
      "ĠACTION": 9125,
      "notations": 9126,
      "ëł": 9127,
      "icht": 9128,
      "Ġdependencies": 9129,
      "Ġgroups": 9130,
      "ĠRequire": 9131,
      "External": 9132,
      "ĠSET": 9133,
      "Ġcalculate": 9134,
      "ĠMatrix": 9135,
      "InstanceOf": 9136,
      "Done": 9137,
      "Ġsin": 9138,
      "ĊĠĠĠĠĠĠĠĠĠĠĠĠĠĠĠĠĠĠĠĠĠĠĠĠĠĠĠĠĠĠĠĠĠĠĠĠĠĠ": 9139,
      "ĠPlease": 9140,
      "tri": 9141,
      "uv": 9142,
      "èģ": 9143,
      "VC": 9144,
      "Ġ256": 9145,
      "Ġpad": 9146,
      "Management": 9147,
      "\"{": 9148,
      "Ġtexture": 9149,
      "232": 9150,
      "Ġdeploy": 9151,
      "SESSION": 9152,
      "Ġtuple": 9153,
      "--------------": 9154,
      "asi": 9155,
      "Ġfailure": 9156,
      "Ġthree": 9157,
      "contrib": 9158,
      "åĨĻ": 9159,
      "logs": 9160,
      "ç§į": 9161,
      "hal": 9162,
      "extends": 9163,
      "Ġmesh": 9164,
      "sqrt": 9165,
      "aur": 9166,
      "FX": 9167,
      "changed": 9168,
      "dash": 9169,
      "Ġ_.": 9170,
      "129": 9171,
      "SERV": 9172,
      "Qt": 9173,
      "åŁº": 9174,
      "HAND": 9175,
      "reduce": 9176,
      "Metrics": 9177,
      "Ġalong": 9178,
      "à¯ģ": 9179,
      "Sprintf": 9180,
      "ĠãĤ": 9181,
      "-%": 9182,
      "covered": 9183,
      "ĊĠĠĠĠĠĠĠĠĠĠĠĠĠĠĠĠĠĠĠĠĠĠĠĠĠĠĠĠĠĠĠĠĠĠĠĠĠĠĠĠĠĠĠĠĠĠĠĠĠĠĠĠĠĠĠĠĠĠĠ": 9184,
      "aken": 9185,
      "templates": 9186,
      "plier": 9187,
      "Ġ01": 9188,
      "ĠKEY": 9189,
      "ĊĠĠĠĠĠĠĠĠĠĠĠĠĠĠĠĠĊĠĠĠĠĠĠĠĠĠĠĠĠĠĠĠ": 9190,
      "Inner": 9191,
      "SPE": 9192,
      "!</": 9193,
      "marker": 9194,
      "Ġbig": 9195,
      "(\"[": 9196,
      "ĠCard": 9197,
      "Ġvs": 9198,
      ",.": 9199,
      "Ġbucket": 9200,
      "Extra": 9201,
      "ä¼ł": 9202,
      "pict": 9203,
      "Ġfoo": 9204,
      "ï¼Ł": 9205,
      "!<": 9206,
      "Ġunless": 9207,
      "Inject": 9208,
      "ĠCOL": 9209,
      "[],": 9210,
      "åĽł": 9211,
      "Ġ))": 9212,
      "è¯ģ": 9213,
      "EventArgs": 9214,
      "OutputStream": 9215,
      "hist": 9216,
      "éĽĨ": 9217,
      "INDEX": 9218,
      "Ð¾Ð±": 9219,
      "čĊčĊĉĉ": 9220,
      "printStackTrace": 9221,
      "Pin": 9222,
      "2013": 9223,
      "havi": 9224,
      "ĠÐ±": 9225,
      "214": 9226,
      "desk": 9227,
      "Contents": 9228,
      "å¾®åįļ": 9229,
      "swift": 9230,
      "based": 9231,
      "Ġaround": 9232,
      "Scalar": 9233,
      "å¥½": 9234,
      "LowerCase": 9235,
      "Sound": 9236,
      "/$": 9237,
      "Tuple": 9238,
      "Ġlarge": 9239,
      "numeric": 9240,
      "ĠConstant": 9241,
      "Percent": 9242,
      "ĠTHIS": 9243,
      "/?": 9244,
      "HOST": 9245,
      "ley": 9246,
      "ĠStyle": 9247,
      "Analysis": 9248,
      "Combo": 9249,
      "Ġactivity": 9250,
      "Ġfprintf": 9251,
      "Ð½Ð°": 9252,
      "RM": 9253,
      "':'": 9254,
      "Ġ1024": 9255,
      "Future": 9256,
      "memItemLeft": 9257,
      "ĊĠĠĠĠĠĠĊĠĠĠĠĠ": 9258,
      "Times": 9259,
      "Ġprec": 9260,
      "outube": 9261,
      "ĊĊĊĊĊ": 9262,
      "çĬ¶": 9263,
      "rier": 9264,
      "ĠExt": 9265,
      "AMP": 9266,
      "ipient": 9267,
      "Ð³": 9268,
      "ĠTry": 9269,
      "BLOCK": 9270,
      "memname": 9271,
      "CLK": 9272,
      "Ġshall": 9273,
      "binding": 9274,
      "reverse": 9275,
      "Ġíķ": 9276,
      "Ġmaster": 9277,
      "INGS": 9278,
      "ĠÑĥ": 9279,
      "Ġ44": 9280,
      "Ġfront": 9281,
      "unknown": 9282,
      "Virtual": 9283,
      "inator": 9284,
      "asurement": 9285,
      "Rules": 9286,
      "buttons": 9287,
      "memItemRight": 9288,
      "Ġxmlns": 9289,
      "Upper": 9290,
      "Ġlinks": 9291,
      "Pag": 9292,
      "lush": 9293,
      "Ġdocker": 9294,
      "appro": 9295,
      "EventHandler": 9296,
      "roker": 9297,
      "have": 9298,
      "æĵįä½ľ": 9299,
      "mapping": 9300,
      "çĦ¶": 9301,
      "dapt": 9302,
      "efficient": 9303,
      "ĠçļĦ": 9304,
      "ĠRandom": 9305,
      "hd": 9306,
      "Ġ\"--": 9307,
      "Ġstarting": 9308,
      "energy": 9309,
      "appendChild": 9310,
      "Ġconfigure": 9311,
      "Repo": 9312,
      "nama": 9313,
      "getClass": 9314,
      "rypto": 9315,
      "SUP": 9316,
      "Ġps": 9317,
      "jd": 9318,
      "[![": 9319,
      "mul": 9320,
      "Marker": 9321,
      "Arrays": 9322,
      "Ġ199": 9323,
      "SCRIPTION": 9324,
      "*.": 9325,
      "Variant": 9326,
      "ĠBasic": 9327,
      "117": 9328,
      "breadcrumb": 9329,
      "Called": 9330,
      "Labels": 9331,
      "Ġdas": 9332,
      "cookie": 9333,
      "Ġ')": 9334,
      "Ġregist": 9335,
      "æºĲ": 9336,
      "ĠNE": 9337,
      "åİŁ": 9338,
      "Invoke": 9339,
      "ĠWorld": 9340,
      "cms": 9341,
      "Confirm": 9342,
      "validator": 9343,
      "states": 9344,
      "ĊĠĠĠĠĠĠĠĠĠĠĠĠĠĠĠĠĠĠĠĠĠĠĠĠĠĠĠĠĠĠĠĠĠĠĠĠĠĠĠĠĠ": 9345,
      "Ġmoment": 9346,
      "stdout": 9347,
      "chnology": 9348,
      "SIGN": 9349,
      "æ´": 9350,
      "awesome": 9351,
      "Ġfocus": 9352,
      "brid": 9353,
      "Ġatom": 9354,
      "Actor": 9355,
      "gb": 9356,
      ".)": 9357,
      "Indic": 9358,
      "SG": 9359,
      "ĠOne": 9360,
      "|)": 9361,
      "Ġradius": 9362,
      "Ġcorresponding": 9363,
      "ements": 9364,
      "MBER": 9365,
      "Ġthings": 9366,
      "Visibility": 9367,
      "Ġsit": 9368,
      "è¿Ľè¡Į": 9369,
      "oad": 9370,
      "å±ŀ": 9371,
      "139": 9372,
      "ĠCreates": 9373,
      "Dom": 9374,
      "ocation": 9375,
      "ables": 9376,
      "ĠĊĠĠ": 9377,
      "ĠDef": 9378,
      "Ã¡n": 9379,
      "Ġconfigur": 9380,
      "ĠĠĠĠĠĠĠĠĠĠĠĠĠĠĠĠĠĠĠĠĠĠĠĠĠ": 9381,
      "Ġdeleted": 9382,
      "Ġscan": 9383,
      "æ¶Ī": 9384,
      "ĊĠĠĠĠĉ": 9385,
      "Ð¸Ð¼": 9386,
      "Ġcolors": 9387,
      "dynamic": 9388,
      "çĥŃåº¦": 9389,
      "DataType": 9390,
      "zoom": 9391,
      "áĢ": 9392,
      "bn": 9393,
      "Äģ": 9394,
      "Persist": 9395,
      "otes": 9396,
      "()}": 9397,
      "wards": 9398,
      "ĠPR": 9399,
      "=${": 9400,
      "333": 9401,
      "Pack": 9402,
      "Ġstyles": 9403,
      "126": 9404,
      "emy": 9405,
      "Ġuma": 9406,
      "Ġ#{": 9407,
      "ç»ı": 9408,
      "Answ": 9409,
      "ulture": 9410,
      "ĠExpression": 9411,
      "Ġinstances": 9412,
      "wg": 9413,
      "deploy": 9414,
      "LEVEL": 9415,
      "asing": 9416,
      "Ġ56": 9417,
      "pagination": 9418,
      "quis": 9419,
      "Ġconstruct": 9420,
      "Ġsec": 9421,
      "ku": 9422,
      "war": 9423,
      "ĠConnection": 9424,
      "CN": 9425,
      "IMAGE": 9426,
      "igate": 9427,
      "()`": 9428,
      "Descri": 9429,
      "enant": 9430,
      "between": 9431,
      "ROW": 9432,
      "Ġfade": 9433,
      "Touch": 9434,
      "135": 9435,
      "Ġou": 9436,
      "variables": 9437,
      "ĠUnityEngine": 9438,
      "('\\": 9439,
      "dbc": 9440,
      "Multip": 9441,
      "137": 9442,
      "boost": 9443,
      "ìŀĲ": 9444,
      "åĲĳ": 9445,
      "Foo": 9446,
      "ç®¡çĲĨ": 9447,
      "Ġavoid": 9448,
      "->{": 9449,
      "Cons": 9450,
      "ĠJavaScript": 9451,
      "cesses": 9452,
      "ĠERROR": 9453,
      "ering": 9454,
      "130": 9455,
      "Ġhighlight": 9456,
      "pick": 9457,
      "AUTH": 9458,
      "[_": 9459,
      "Ġ){": 9460,
      "Declaration": 9461,
      "004": 9462,
      "ĠSY": 9463,
      "Ġexpr": 9464,
      "čĊĠĠĠĠĠĠĠĠĠĠĠĠĠĠĠĠĠ": 9465,
      "è½½": 9466,
      "roles": 9467,
      "789": 9468,
      "')}}": 9469,
      "lying": 9470,
      "Ġexact": 9471,
      "Ġnotification": 9472,
      "IDE": 9473,
      "Python": 9474,
      "Updated": 9475,
      "relation": 9476,
      "5555": 9477,
      "å¼ķ": 9478,
      "Ġ(<": 9479,
      "ìľ¼": 9480,
      "Ġrs": 9481,
      "Pipeline": 9482,
      "RX": 9483,
      "<'": 9484,
      "[];": 9485,
      "iframe": 9486,
      "Design": 9487,
      "OLDER": 9488,
      "Ġwin": 9489,
      "315": 9490,
      "Ġprocessing": 9491,
      "ëĵľ": 9492,
      "Ġbetter": 9493,
      "æ¯Ķ": 9494,
      "jar": 9495,
      "week": 9496,
      "ÑĨÐ¸": 9497,
      "ĠWARRANTY": 9498,
      "parts": 9499,
      "åĪĽå»º": 9500,
      "Ġ55": 9501,
      "GPIO": 9502,
      "èª": 9503,
      "ple": 9504,
      "tail": 9505,
      "Week": 9506,
      "Ã§Ãµes": 9507,
      "constructor": 9508,
[...]
